memory_initialization_radix = 16;
memory_initialization_vector =
000b,
8006,
0003,
8003,
0016,
0094,
000c,
8023,
0011,
0037,
006a,
8021,
8003,
0021,
0006,
000d,
8001,
0007,
8031,
0037,
8039,
0004,
0025,
8007,
8004,
804f,
0043,
0036,
0071,
804a,
0034,
003a,
0011,
0039,
804e,
8020,
000a,
0026,
0019,
8038,
0018,
0051,
0002,
8020,
007e,
8008,
000b,
0014,
8046,
0031,
0067,
8008,
807f,
0038,
8030,
0045,
8033,
0010,
003c,
000f,
0017,
8006,
8032,
8032,
001f,
003f,
000c,
005e,
001f,
8012,
8009,
0064,
0017,
0013,
8007,
0009,
0030,
004d,
0009,
000e,
0046,
8023,
0007,
001e,
801c,
8008,
0010,
005f,
8028,
8008,
0013,
0007,
803c,
002a,
8027,
8055,
8041,
0040,
8003,
005c,
800e,
802d,
0033,
0017,
8016,
801f,
800a,
0004,
0075,
001e,
8008,
801c,
0004,
800d,
8033,
801a,
0020,
8018,
8036,
803f,
0011,
803d,
0038,
000a,
8025,
0009,
8007,
0000,
8025,
006c,
000d,
8007,
801c,
8057,
8015,
8061,
8007,
0030,
0009,
0004,
803b,
0015,
802b,
8068,
000e,
8013,
0005,
800a,
0010,
8012,
002c,
8061,
8058,
000c,
0020,
0032,
800c,
003e,
801c,
8062,
001c,
803c,
0020,
8015,
0012,
0003,
800c,
802c,
0022,
8039,
001c,
8006,
8019,
0004,
0031,
0010,
8043,
8005,
0044,
0003,
801a,
0081,
001c,
8026,
8037,
802e,
004d,
0075,
001a,
8038,
8020,
002a,
802f,
806a,
0004,
0020,
0019,
003f,
8029,
0029,
001d,
803e,
0016,
806a,
004b,
801b,
0041,
8011,
8036,
801b,
003d,
0019,
8022,
001e,
8019,
000b,
0025,
004d,
807e,
001c,
0037,
8009,
0001,
801f,
002a,
8029,
006c,
0012,
802e,
8043,
0061,
8008,
8070,
0035,
8030,
001b,
8006,
8036,
800c,
003a,
8068,
800e,
8015,
0023,
0040,
000b,
8003,
804b,
004f,
0037,
0003,
8026,
8010,
805c,
0036,
8016,
0058,
8030,
8000,
0063,
8019,
0021,
804e,
0046,
0009,
0019,
000f,
000d,
002c,
000d,
0025,
0057,
8038,
803c,
0064,
003a,
8027,
8006,
003c,
8004,
002d,
0061,
0020,
800e,
8027,
000d,
8008,
800c,
0045,
8006,
8026,
8012,
8038,
8097,
8025,
0009,
8000,
8020,
801f,
801c,
0022,
0036,
8017,
8001,
800a,
000a,
0047,
8000,
0060,
802b,
000d,
802b,
0026,
0031,
8059,
007b,
804d,
8025,
8022,
802b,
0003,
8045,
8010,
803f,
802e,
0018,
8019,
8053,
8056,
8005,
8000,
8020,
0014,
8018,
8040,
001e,
801e,
000d,
002b,
00b6,
8000,
8024,
801a,
001a,
000d,
800c,
8000,
0004,
0035,
8029,
0008,
000d,
8032,
8002,
0004,
0013,
001b,
0032,
001d,
8005,
0018,
0007,
801e,
0010,
8006,
8003,
8025,
8024,
007f,
0006,
0011,
004a,
004b,
8013,
006c,
8027,
8009,
0037,
0037,
8011,
002b,
803d,
003d,
8026,
000a,
8020,
803b,
0023,
001d,
000b,
800b,
8036,
8016,
8030,
8002,
0000,
0004,
000c,
800d,
8038,
8072,
8028,
801c,
001c,
005b,
0027,
001b,
8005,
8019,
000f,
0015,
0053,
0000,
006d,
802f,
0068,
801c,
000e,
8023,
801d,
8006,
801c,
002a,
003b,
8009,
0062,
8030,
000e,
0035,
8018,
8027,
804a,
0016,
8078,
805c,
002e,
0017,
803e,
8019,
000d,
0051,
0024,
0034,
8049,
0000,
0022,
001f,
8015,
8040,
8001,
800a,
8009,
8056,
802c,
0046,
0009,
0013,
0026,
8032,
8042,
807d,
004d,
0027,
000d,
0010,
0000,
0041,
8046,
8066,
801b,
0004,
005c,
001e,
0074,
004a,
8015,
0013,
803c,
0016,
8017,
801e,
8039,
8072,
8010,
0064,
0005,
0026,
8022,
0057,
0024,
0022,
8015,
0001,
8002,
0006,
0000,
8016,
8001,
001b,
0025,
8037,
001c,
0003,
8032,
005d,
0010,
8003,
0059,
002c,
8024,
8017,
803c,
8007,
003d,
8005,
8035,
805a,
001b,
8004,
002b,
006b,
8012,
801e,
0035,
8009,
8020,
002a,
8046,
8015,
0065,
8031,
801f,
0005,
8000,
8054,
801c,
8023,
8000,
0025,
800b,
005a,
8028,
802d,
8002,
801a,
8070,
0062,
80a2,
8028,
0017,
8026,
0080,
0009,
8022,
0007,
8053,
001e,
0060,
001a,
003f,
8016,
8003,
0004,
8006,
8049,
0031,
8032,
0084,
8049,
8038,
8032,
001b,
0002,
0015,
8048,
8009,
0034,
0006,
8007,
8017,
0023,
0047,
8027,
0034,
8015,
805b,
0012,
0014,
8024,
0018,
8016,
8004,
0049,
801a,
002e,
8056,
0065,
8028,
0011,
8008,
8005,
8038,
8001,
8011,
001a,
800c,
8060,
8006,
0011,
0020,
8012,
000a,
0021,
0091,
0014,
0038,
0047,
0034,
0005,
0058,
804d,
0017,
8050,
806c,
808d,
003c,
800e,
002e,
807e,
0055,
8035,
001c,
8001,
803c,
0023,
0029,
0034,
0031,
8054,
8000,
000f,
0034,
801a,
0002,
0022,
8024,
8022,
0055,
8022,
8029,
800b,
8005,
8012,
0007,
0054,
8043,
8019,
000b,
8062,
8056,
803f,
8030,
0069,
0022,
0042,
8037,
8074,
8002,
805e,
005c,
004c,
8000,
001d,
0040,
0032,
0010,
801a,
803f,
805c,
8023,
8054,
801c,
8024,
8024,
0028,
0013,
803e,
804d,
8019,
0013,
8019,
0057,
8057,
0002,
8007,
802d,
8022,
803f,
801b,
004d,
802e,
0001,
001f,
0007,
0061,
0037,
8021,
002c,
0021,
8023,
800b,
0036,
0036,
000d,
0009,
803e,
804e,
002c,
8048,
000d,
8028,
003f,
0009,
8027,
0061,
001e,
8052,
8029,
8042,
0057,
8057,
805c,
0010,
0000,
800a,
804a,
8032,
0015,
8036,
800f,
004b,
8050,
800e,
8084,
8060,
8025,
004d,
001b,
8017,
8023,
8002,
001c,
8032,
804b,
8003,
800d,
802a,
800c,
001d,
0030,
8010,
8009,
0023,
002f,
801b,
001a,
0014,
8055,
80ca,
8073,
8049,
807f,
8037,
8079,
0076,
002c,
0002,
0061,
8060,
0055,
803e,
802b,
0060,
004e,
0070,
8035,
8071,
000a,
8034,
8063,
009b,
8032,
003b,
8047,
00b3,
8040,
8058,
804b,
0000,
8045,
0058,
8044,
0066,
0036,
8004,
006a,
0028,
004b,
8058,
000a,
0026,
8059,
803c,
8063,
8008,
800e,
000d,
8005,
8063,
0063,
8061,
8021,
0077,
8007,
800d,
8043,
003b,
0084,
804f,
800a,
801c,
800c,
803c,
0014,
8010,
809a,
8010,
8000,
003d,
0038,
8006,
004b,
8023,
8015,
807c,
0025,
007f,
0039,
800a,
8000,
8008,
8020,
8017,
8077,
0022,
8031,
00b6,
8044,
0044,
000f,
802a,
800f,
8030,
800a,
0050,
8061,
800a,
0059,
005e,
005a,
0080,
0050,
801d,
0069,
005f,
8032,
807a,
804f,
8044,
0067,
004e,
8073,
803c,
0061,
8036,
8003,
0040,
0012,
005f,
0042,
00ac,
008a,
0022,
8086,
8041,
001d,
805e,
0017,
0061,
8000,
8001,
0001,
8003,
8038,
801b,
8017,
8024,
8028,
002a,
8008,
001f,
8021,
8011,
8006,
8014,
0025,
0011,
0024,
8000,
0025,
8042,
0038,
804b,
0006,
001e,
005a,
0023,
0023,
800a,
000c,
8006,
8002,
8017,
8061,
003a,
8030,
0013,
001b,
8028,
0018,
001b,
004e,
0049,
0029,
0065,
8005,
0026,
0019,
0034,
0043,
8065,
804e,
8003,
000f,
001e,
801d,
0011,
8018,
802d,
003a,
0064,
8043,
8039,
0060,
0052,
0038,
8064,
8057,
8032,
800f,
8027,
802a,
008f,
003a,
802f,
804c,
0033,
000b,
800a,
801a,
8041,
0079,
8029,
0009,
801c,
000d,
001a,
8005,
001e,
0042,
003e,
8014,
0025,
0044,
8009,
0037,
000d,
807e,
0038,
003b,
0025,
000b,
8071,
0050,
8006,
8034,
0007,
002e,
8046,
0025,
0042,
0003,
0000,
802d,
80a0,
8061,
8046,
801f,
8039,
8072,
8011,
8024,
800f,
003f,
802b,
000c,
805d,
0052,
801f,
8002,
8063,
0076,
0065,
8016,
804a,
8024,
8056,
0039,
8017,
003e,
8012,
0035,
001d,
001b,
0017,
800f,
0076,
801e,
003d,
801e,
800b,
0073,
802e,
0082,
0021,
0007,
800c,
0000,
8005,
0018,
0016,
003d,
000c,
0021,
8000,
0003,
0027,
8059,
0046,
804d,
0008,
000b,
0006,
804f,
0003,
800e,
001b,
800c,
8048,
8072,
8059,
0011,
000d,
8050,
805a,
005a,
800e,
0026,
8025,
0008,
8017,
8009,
8026,
802a,
801a,
0035,
8017,
805a,
806e,
0048,
8038,
0027,
804f,
002c,
0059,
8016,
001b,
8008,
0065,
0024,
8003,
003e,
0014,
8015,
8046,
0015,
8006,
8020,
001e,
0017,
803d,
801b,
8007,
0034,
8034,
000f,
0024,
8061,
802f,
804a,
8010,
8059,
001e,
805e,
003d,
0009,
800a,
8054,
001a,
8077,
001d,
006f,
000c,
803c,
8004,
8023,
8018,
0025,
800a,
0017,
800c,
8043,
8033,
005c,
0014,
0045,
8024,
0021,
0006,
803a,
0052,
8037,
8006,
0035,
0003,
0038,
803d,
8024,
0009,
8080,
0005,
0025,
8022,
803a,
8056,
800e,
801a,
8016,
000e,
0015,
8015,
0049,
001a,
8011,
805d,
800a,
803c,
8011,
0030,
8054,
0019,
001c,
801b,
8019,
8009,
8060,
0006,
002b,
0038,
8023,
8017,
8017,
003d,
0011,
8030,
007f,
801d,
8048,
8037,
0016,
8047,
0025,
8033,
8008,
001d,
8001,
8021,
8039,
8008,
8021,
0010,
8021,
800f,
800b,
800f,
801d,
8027,
806b,
8009,
004d,
8004,
0045,
800f,
000d,
8024,
001d,
001f,
003d,
001c,
803e,
8031,
8019,
804e,
8023,
8070,
802d,
804e,
802b,
0040,
000e,
8024,
0026,
0038,
0010,
0007,
802a,
0000,
0002,
002f,
001a,
8006,
8061,
8022,
0002,
801c,
0007,
8026,
0053,
000f,
800c,
8010,
0013,
0001,
8036,
805e,
801d,
0002,
802d,
8072,
0038,
807a,
802d,
0021,
004b,
000a,
8015,
000a,
8016,
0039,
8034,
0008,
0026,
8045,
004b,
802b,
0001,
8011,
8044,
002f,
0016,
001e,
804a,
802f,
003b,
0016,
802b,
8052,
0039,
8046,
0006,
0057,
0021,
802d,
8046,
005f,
8033,
8023,
8001,
0000,
8009,
8010,
805e,
0027,
8012,
0001,
0054,
8032,
001d,
800f,
8001,
0020,
8036,
000c,
8043,
8062,
0056,
8018,
8016,
802f,
0034,
8008,
0003,
001f,
800a,
0041,
001e,
003d,
801a,
006b,
8036,
000d,
000b,
0004,
805d,
802c,
801e,
003a,
8000,
002e,
0033,
0018,
8002,
8050,
8000,
0008,
0009,
800e,
0032,
0017,
8020,
8054,
008b,
0016,
804a,
8010,
0017,
0003,
801f,
001f,
0017,
800b,
0012,
8015,
004c,
801a,
000e,
8006,
8055,
801d,
800e,
0017,
8049,
0016,
0035,
0017,
0058,
8000,
0014,
802f,
0028,
002d,
801c,
0017,
0008,
000c,
8018,
0023,
005b,
8027,
806b,
8049,
0032,
800c,
002f,
0016,
8076,
0050,
8005,
0039,
8005,
001c,
001c,
8022,
0003,
8062,
801e,
0067,
8048,
8007,
800d,
8001,
0002,
0006,
000a,
0032,
0041,
0079,
0059,
0014,
803f,
804f,
801d,
8043,
8009,
0044,
8019,
804d,
0013,
8048,
8020,
801f,
0005,
8003,
0004,
8008,
0001,
804b,
8013,
002e,
001e,
8028,
0001,
8018,
0032,
8032,
0064,
0009,
8007,
000e,
8011,
8037,
8022,
8004,
8064,
000f,
001f,
004b,
0025,
800a,
000f,
8051,
8011,
0005,
800a,
8003,
001e,
8029,
8041,
8024,
8019,
8015,
8009,
0020,
001e,
009d,
001b,
8006,
8069,
0071,
8004,
8061,
8001,
801b,
0012,
001d,
8043,
0010,
005e,
8077,
8019,
0032,
0001,
801d,
8007,
8023,
0012,
8010,
0008,
8033,
004f,
8017,
8046,
8015,
8022,
0039,
002b,
0000,
005c,
8049,
8017,
8020,
000d,
0007,
8077,
803e,
002f,
8040,
802f,
8019,
002a,
8076,
801e,
8059,
8001,
000b,
0049,
800b,
004c,
8023,
0019,
801a,
8008,
003b,
805e,
8007,
0005,
8034,
800f,
8024,
000d,
8081,
804b,
8023,
801d,
002a,
8058,
801d,
8042,
8023,
8024,
8033,
800e,
803f,
800a,
8015,
8028,
802c,
0031,
001a,
8056,
8027,
800a,
800b,
0047,
8016,
000b,
002a,
801d,
0024,
8067,
8011,
0044,
000f,
0023,
8007,
0000,
001b,
0024,
000f,
0024,
001e,
8020,
805d,
8063,
0020,
8087,
0009,
8028,
803e,
8003,
8020,
8031,
002f,
8028,
007b,
0005,
8043,
8054,
0049,
802d,
006a,
0015,
002e,
0036,
0047,
801e,
0011,
0032,
0025,
0023,
0039,
8013,
8007,
8026,
8024,
0000,
000b,
8032,
001b,
8028,
0006,
0007,
0061,
8053,
8032,
800c,
8071,
0031,
007a,
8018,
0014,
8001,
8013,
0013,
8008,
004f,
000e,
8013,
0023,
8023,
003e,
0093,
0013,
803a,
8052,
0013,
002b,
805f,
000c,
0038,
001d,
8052,
8021,
0064,
000b,
0004,
800a,
8007,
802b,
8048,
8062,
0000,
800e,
8001,
8043,
0005,
0034,
803e,
0044,
002a,
8004,
8013,
0031,
000b,
8008,
8027,
8022,
8006,
0014,
0023,
002f,
806b,
0034,
8012,
001f,
003f,
8017,
8011,
001f,
8021,
8034,
0017,
0033,
800e,
0024,
8020,
0019,
003e,
8026,
000c,
0074,
8011,
002a,
8009,
001c,
8029,
8058,
001d,
002b,
0007,
0044,
8002,
8020,
0039,
8036,
0015,
8015,
000a,
8026,
8005,
0011,
8001,
8014,
8022,
0030,
8015,
002f,
0012,
804a,
0042,
005a,
800c,
8003,
8007,
003c,
800b,
0006,
0049,
802d,
8019,
8013,
003a,
8035,
8006,
801a,
0035,
001a,
804f,
0025,
0000,
802b,
001c,
8004,
8047,
0026,
001a,
8028,
8018,
002d,
0024,
0000,
8030,
0003,
8005,
8059,
8011,
001d,
0005,
800e,
8047,
8018,
8000,
0024,
801b,
0002,
0007,
800e,
0033,
800d,
0068,
0015,
8020,
801c,
8016,
0025,
0052,
002b,
0014,
0006,
8030,
003e,
0035,
802d,
802a,
800b,
0000,
002a,
0022,
8008,
8015,
801f,
003e,
8016,
8009,
001e,
800d,
003a,
8072,
802b,
800f,
8068,
005b,
801c,
806c,
8028,
0001,
8043,
800e,
8049,
8014,
8053,
003b,
0072,
8027,
0000,
8006,
0018,
801d,
0039,
801a,
0028,
8023,
8048,
8047,
8010,
0006,
8037,
0019,
001c,
801d,
002a,
0054,
0022,
8034,
8050,
0001,
8008,
804d,
001e,
801a,
006e,
8017,
8046,
8011,
8048,
0030,
001d,
8037,
0012,
8010,
8005,
8020,
8027,
8004,
000a,
0018,
8018,
0039,
0025,
8030,
800f,
0010,
8024,
0003,
8016,
0017,
0012,
8033,
804a,
8002,
8026,
0031,
0010,
8007,
8003,
8028,
8018,
8031,
000f,
0008,
0041,
8038,
001b,
003f,
805c,
0001,
802e,
8004,
0018,
0011,
002a,
8005,
807b,
8055,
8010,
8014,
0029,
001a,
8020,
800a,
000d,
000a,
800e,
0016,
0020,
003d,
0039,
0063,
8073,
801e,
8003,
0044,
0069,
8009,
802b,
0000,
0071,
0023,
8011,
8033,
8040,
802c,
8015,
0021,
8037,
000a,
0049,
0016,
8025,
803c,
8011,
0004,
0038,
0022,
001e,
0047,
8006,
001b,
8041,
000a,
0002,
0005,
002a,
000d,
003b,
0017,
800d,
800c,
0003,
8040,
0057,
0005,
8012,
800e,
0061,
8008,
000e,
0044,
0027,
0030,
0001,
8003,
0030,
001c,
000f,
8059,
8030,
802f,
8036,
804e,
8002,
0004,
002d,
800e,
8020,
0005,
0003,
001d,
803b,
8055,
0009,
8003,
800e,
0014,
803e,
003d,
800f,
0020,
004b,
002c,
800a,
8008,
002e,
800a,
800a,
0007,
0000,
8007,
8006,
004f,
8016,
8063,
000e,
8014,
002e,
0035,
8061,
005b,
0060,
804f,
0002,
8039,
0017,
0046,
8032,
801f,
0027,
001e,
0043,
0057,
0028,
8000,
8012,
0044,
0013,
8005,
0014,
0079,
0052,
8023,
8003,
002a,
000d,
003e,
000d,
806a,
8052,
8072,
8020,
8045,
8066,
8054,
000c,
8027,
8004,
803c,
8009,
0026,
8095,
0027,
0010,
0012,
0042,
0081,
8007,
0062,
8031,
8032,
0058,
8016,
005d,
0013,
801a,
0022,
000a,
8009,
0047,
8060,
8050,
003a,
0011,
8016,
0034,
0054,
0055,
8022,
804d,
007f,
8009,
0014,
8052,
8021,
0004,
005f,
8076,
0023,
8009,
0077,
004c,
0070,
000a,
0062,
805a,
001f,
801e,
0010,
8002,
0088,
005f,
804b,
004f,
8032,
802c,
0017,
001c,
8020,
0060,
0035,
8018,
0000,
0014,
803f,
0006,
801c,
000d,
0008,
8036,
0027,
0023,
0013,
8045,
0025,
001f,
003e,
002d,
0036,
800a,
8061,
800b,
8049,
0079,
0064,
803e,
0019,
0077,
001f,
000b,
8022,
002e,
8028,
004d,
0047,
803f,
803a,
807f,
0083,
803a,
8039,
807f,
80d3,
8050,
8040,
009d,
0069,
8002,
005f,
8092,
0089,
8077,
8080,
00d1,
0073,
0007,
8015,
80e1,
00b6,
8034,
80bd,
00a6,
8047,
00ca,
0097,
0051,
003b,
804a,
0033,
808a,
80bf,
8023,
8021,
004e,
006b,
8016,
0078,
0069,
0036,
8070,
001a,
00c5,
80a2,
80aa,
8081,
811e,
8079,
00de,
0039,
806a,
003b,
803c,
8067,
0086,
0066,
00bf,
80c5,
0041,
006d,
8076,
8083,
002b,
00da,
80b6,
80ad,
8123,
8091,
8009,
80db,
00b7,
0088,
8043,
00a7,
804c,
0039,
0019,
808c,
010d,
002c,
0010,
0000,
8072,
00af,
807d,
8070,
00c4,
80d0,
0087,
0060,
0063,
0029,
8017,
802e,
002c,
80b6,
8013,
0072,
00c8,
001e,
0045,
0046,
012a,
004d,
8030,
0063,
00dc,
8077,
8094,
806f,
80a1,
0051,
006a,
00c5,
006a,
00b6,
8012,
8020,
00b2,
002b,
002f,
806b,
00be,
0074,
805a,
806e,
8071,
00d4,
8119,
8080,
8121,
80cf,
80ce,
8094,
0013,
0049,
804b,
00cc,
8084,
006b,
809f,
805c,
011e,
00ac,
0038,
800d,
806e,
0097,
809a,
80ae,
00d4,
804b,
00e1,
8015,
002b,
8046,
8059,
000a,
8038,
8073,
007c,
005b,
009e,
0099,
0043,
0092,
00d3,
0084,
8048,
0010,
00ca,
8053,
80bb,
8095,
80c6,
804d,
0142,
0007,
8060,
0083,
8038,
8045,
0067,
00d4,
00c6,
8097,
00c2,
0111,
806c,
807e,
803f,
0023,
80b4,
80b4,
80ec,
810c,
80be,
8066,
0067,
0072,
803a,
00ba,
8030,
0013,
8058,
80f7,
0096,
00c0,
000f,
8052,
8099,
0054,
8085,
802c,
00dd,
80d2,
0027,
003b,
0026,
8007,
808f,
8083,
80b8,
8069,
0058,
8053,
00b6,
005d,
0012,
0014,
0089,
00be,
8097,
8046,
00db,
803f,
8062,
80d7,
80e9,
8048,
006a,
0022,
001a,
009d,
8052,
8034,
00bd,
006c,
004d,
804a,
00c2,
00bb,
0013,
8020,
800b,
009b,
808f,
807b,
809d,
80b4,
801f,
8098,
002a,
00a9,
8033,
0099,
8038,
0021,
8032,
8097,
0058,
004e,
0000,
804d,
80c3,
0038,
8074,
8018,
00a5,
80ba,
008f,
802a,
8051,
8025,
8048,
006b,
0016,
8039,
0070,
80ac,
004d,
007d,
004e,
0070,
006e,
008a,
800f,
0065,
00e3,
801a,
804c,
809e,
8067,
8069,
0024,
004b,
8023,
006f,
809b,
8019,
005f,
0004,
0049,
8088,
0052,
002e,
80bd,
802b,
8047,
8019,
000e,
80d9,
8019,
801e,
801f,
005c,
008c,
801a,
8000,
0029,
805f,
0030,
8088,
808c,
0003,
0053,
0006,
80d8,
8004,
0084,
8055,
8080,
00b0,
8011,
0039,
8057,
0076,
8029,
803b,
00ac,
0060,
0030,
800d,
8026,
0006,
0074,
8030,
00b3,
0001,
00be,
8030,
0056,
00a7,
0080,
807e,
80b9,
808c,
0087,
00f4,
0044,
804f,
800a,
8009,
0040,
0025,
006a,
000f,
808c,
00cf,
0056,
806d,
0037,
801a,
0049,
8040,
80c4,
8060,
809d,
802c,
8038,
005c,
8071,
806e,
00c1,
806a,
001b,
80f3,
8091,
00a2,
0052,
8051,
809f,
8015,
0072,
806b,
8088,
015b,
802f,
0052,
80a4,
8013,
000b,
801c,
00cd,
8025,
0045,
0004,
0024,
8046,
0073,
007a,
00f0,
8025,
012a,
8079,
0033,
00ad,
0029,
80c9,
80cb,
8082,
0029,
00de,
001a,
8040,
002e,
801f,
0039,
0005,
006b,
008e,
80b7,
004d,
0044,
809a,
800d,
0068,
0043,
000b,
80ed,
803a,
8072,
80d9,
801b,
0089,
8036,
8091,
0044,
8058,
0007,
8025,
80bf,
0018,
0086,
8011,
8076,
808d,
0083,
0003,
80c6,
00d7,
8066,
0018,
8077,
00af,
0024,
0013,
010b,
800f,
0006,
8089,
000d,
804d,
00e1,
8021,
00c7,
8059,
0135,
8050,
8068,
00e7,
0082,
80c3,
80b8,
8046,
0041,
0142,
8002,
802e,
006c,
8030,
0043,
8008,
0031,
006c,
80db,
0063,
0086,
8069,
8047,
8001,
0010,
80cc,
80b4,
0046,
80a3,
80d6,
807c,
008a,
8013,
006c,
00e8,
807b,
0094,
80c7,
8033,
00b9,
0124,
0053,
8033,
80ac,
0067,
0099,
8035,
8017,
001e,
008f,
0059,
0071,
8011,
8074,
00c5,
8068,
80ce,
0060,
0049,
804b,
00ca,
800d,
00a1,
8038,
0048,
80ac,
0082,
8008,
801c,
80af,
80a6,
8032,
806e,
010a,
804a,
8036,
0040,
802d,
0016,
00c3,
000b,
004d,
80f8,
8093,
800e,
80a9,
805a,
00a7,
801c,
8137,
80db,
0009,
800f,
80ac,
0021,
00d0,
80a1,
8083,
00a0,
8049,
004d,
8046,
80cc,
8041,
00c9,
00b7,
004a,
80d4,
0079,
0066,
803c,
0078,
006f,
00ee,
0065,
0094,
000e,
8005,
00e2,
8002,
8057,
8026,
00ba,
0059,
00c4,
008c,
0044,
0026,
00de,
80a5,
0052,
00b3,
003b,
8100,
8120,
0021,
0027,
0113,
0074,
8003,
0083,
8032,
8026,
8033,
8010,
8069,
806e,
0021,
8045,
8143,
80c6,
00dd,
00b7,
80fc,
80dc,
808d,
803d,
808a,
806b,
00bf,
8047,
8051,
00da,
8015,
804c,
8014,
808c,
000a,
0043,
00b2,
009c,
80da,
0059,
005f,
8001,
0082,
009a,
00ed,
005e,
00d1,
8016,
0039,
00bb,
0009,
80a1,
8022,
00b6,
00b5,
003b,
00c8,
000d,
0000,
00ed,
80df,
0005,
00c0,
0060,
80d3,
812d,
800f,
8038,
00ff,
0039,
004a,
00b3,
8019,
8015,
805f,
0028,
806f,
806c,
0033,
8046,
8141,
806c,
00b1,
004c,
80c0,
8127,
80cf,
8027,
0052,
8085,
0055,
805f,
80d9,
00c2,
003c,
80cf,
0091,
80f5,
8034,
805c,
0037,
0026,
804f,
0042,
8050,
8019,
0175,
0046,
008f,
800c,
0011,
8005,
0073,
01a9,
009b,
8017,
8089,
0030,
00e9,
0030,
003e,
005d,
0097,
0144,
80f9,
8093,
0113,
0032,
80a5,
8121,
8010,
8026,
8004,
00cd,
00ef,
013b,
813c,
803d,
803c,
0081,
004a,
801b,
00fc,
0029,
80eb,
80a1,
8041,
00c0,
8064,
80aa,
8087,
8121,
8055,
807e,
802e,
008c,
8035,
0080,
0018,
00b0,
0038,
000c,
00d3,
005c,
803e,
804c,
808f,
0046,
8036,
80aa,
00da,
80ca,
0041,
8037,
001b,
0023,
805c,
011f,
8036,
80ab,
0061,
8028,
0016,
00cd,
8024,
0049,
007a,
0157,
80ba,
008d,
0053,
8070,
8115,
80c1,
80a0,
805d,
0081,
8035,
8073,
005c,
8065,
8031,
00ac,
0070,
0066,
8008,
8026,
0076,
806e,
0008,
8095,
0051,
809f,
80ac,
0006,
8105,
0021,
80bd,
8027,
00bc,
804a,
0061,
00ef,
008d,
8086,
80a8,
0098,
006a,
80f3,
0015,
802f,
0074,
8088,
8053,
0091,
80dc,
008f,
80ac,
8038,
003e,
807d,
002e,
809b,
804f,
0096,
802b,
002b,
00e8,
8055,
00b0,
001a,
00e1,
805f,
0069,
0061,
8050,
8099,
8061,
8090,
8089,
0096,
8075,
8153,
0030,
806c,
8042,
00b6,
0099,
0067,
808d,
80af,
0135,
8050,
0014,
8072,
8079,
800e,
80c3,
8065,
80a8,
0017,
80af,
0029,
0018,
8037,
00a3,
0009,
0057,
804b,
8030,
00cb,
004b,
8047,
8036,
8071,
0046,
8060,
807c,
00c7,
809c,
0090,
808f,
803b,
802d,
803b,
00c2,
8051,
805e,
8014,
804e,
8025,
0051,
0011,
00e0,
0077,
0099,
8081,
0064,
005c,
805e,
808e,
8076,
80ba,
8041,
007b,
808c,
80eb,
00e3,
8008,
0009,
0097,
006e,
00be,
8072,
8092,
0097,
809e,
805a,
803e,
8024,
000d,
807a,
801b,
8078,
0010,
80a0,
0032,
0084,
8044,
001e,
802c,
005e,
8042,
809b,
0083,
008e,
8031,
8023,
808c,
0099,
8061,
806b,
0066,
8060,
0052,
8029,
802b,
800b,
8073,
0068,
8076,
8043,
0067,
0001,
8029,
0048,
803f,
007f,
00b9,
009d,
8030,
0084,
8013,
8058,
8010,
8044,
8040,
8009,
008e,
8073,
80e7,
003f,
8089,
805e,
009b,
00ae,
005a,
8031,
8015,
00b2,
8059,
8047,
806c,
800c,
807f,
8070,
80b4,
808c,
8084,
804a,
007c,
0055,
8061,
0056,
8090,
0013,
8054,
8088,
00c3,
0085,
00b8,
8042,
804f,
0080,
8029,
80b0,
00b4,
8093,
008b,
0030,
0073,
803a,
808a,
0009,
80b8,
8055,
0070,
0030,
0054,
00ab,
8020,
0098,
008c,
004f,
8060,
0047,
008d,
806d,
8097,
8075,
80a1,
800e,
0035,
803f,
80aa,
0053,
8048,
807b,
00e6,
0037,
008b,
804c,
0026,
00b2,
804c,
8066,
8054,
003c,
8065,
8077,
80e7,
8037,
8004,
8087,
0063,
00a3,
8039,
007b,
8067,
0040,
8020,
804c,
003f,
0082,
006b,
804f,
8061,
0071,
8072,
805a,
0039,
8026,
0041,
800b,
00a9,
0012,
8010,
0011,
8086,
80dd,
002c,
0007,
006a,
0038,
001d,
005e,
004f,
0067,
8062,
002f,
0097,
800c,
8030,
8050,
80ad,
8014,
0077,
0069,
802f,
0052,
004c,
8042,
0035,
0048,
0059,
80dc,
0002,
0035,
806c,
8019,
8014,
005f,
8015,
8031,
003f,
8036,
8051,
0053,
0073,
801a,
8017,
803b,
0031,
8020,
0021,
0002,
8010,
8036,
8053,
8008,
8019,
002c,
8040,
0053,
8019,
8032,
0034,
0065,
8044,
8048,
8039,
801f,
801c,
8033,
0021,
8006,
8018,
801a,
008a,
002d,
800d,
805a,
002f,
8043,
006a,
004e,
0016,
0020,
0031,
800e,
804f,
000b,
802e,
0014,
002f,
802d,
0002,
0063,
0055,
0046,
8043,
0017,
001c,
000e,
8022,
0002,
001f,
8028,
801d,
8018,
8035,
8036,
0046,
801a,
805a,
802c,
805b,
0036,
8070,
0015,
002f,
000e,
801a,
001a,
804a,
8068,
805e,
0016,
000d,
8000,
000a,
001d,
0011,
8021,
0051,
8006,
8050,
0007,
8072,
8011,
802c,
0072,
8030,
0035,
0002,
002c,
8024,
8066,
000a,
8071,
800c,
8019,
801e,
8024,
8024,
0021,
000f,
8032,
8032,
0048,
000e,
8000,
0007,
0045,
8047,
003a,
0016,
0016,
8007,
0017,
0031,
8088,
000e,
8001,
8009,
0004,
0042,
800a,
800c,
802e,
8075,
8012,
804d,
803e,
0019,
00bb,
001d,
002d,
0054,
0029,
803a,
0018,
0043,
802a,
0024,
807b,
0038,
8012,
002f,
8061,
800b,
0039,
8005,
0044,
8013,
0033,
0058,
0002,
802d,
803f,
8011,
8042,
8010,
802b,
8000,
002a,
8013,
8003,
0030,
800e,
802e,
801f,
0055,
8040,
0032,
8020,
801d,
0025,
8013,
000f,
007b,
801e,
8012,
803c,
001f,
8014,
001c,
8017,
0081,
8003,
0032,
8014,
0038,
8064,
000a,
004e,
000e,
0013,
8047,
8056,
0057,
8020,
000a,
002e,
0034,
0010,
801a,
002e,
8032,
8037,
8017,
000d,
801f,
8011,
803a,
000a,
804e,
0047,
8010,
0042,
0002,
801d,
803c,
8017,
8016,
0075,
801d,
0064,
0016,
800b,
0047,
803e,
0006,
003a,
0017,
001f,
800c,
000f,
804c,
002b,
0054,
8008,
8026,
8016,
804f,
8055,
8027,
0076,
006a,
8003,
0023,
8031,
8004,
0051,
8099,
8009,
0012,
0025,
8040,
0038,
001f,
800c,
0018,
8019,
8002,
8083,
0017,
0004,
806a,
802f,
805e,
0003,
8013,
0002,
0049,
0015,
004b,
003d,
005e,
002d,
0022,
8026,
0046,
001a,
0018,
8054,
8002,
0023,
8056,
0019,
801b,
8061,
0003,
0031,
8009,
0041,
8000,
0017,
0039,
0014,
8010,
8045,
006c,
001b,
0012,
0008,
8041,
0025,
002f,
0030,
8072,
003e,
0003,
0017,
8024,
8058,
801e,
801c,
0008,
803b,
0036,
0003,
000b,
002c,
8010,
8039,
8008,
8014,
800d,
8039,
8050,
0017,
001a,
0009,
002b,
0002,
8036,
0033,
001f,
004d,
803a,
0013,
805c,
0002,
001f,
0060,
000f,
0032,
8031,
802b,
800a,
8018,
0021,
004e,
8017,
8050,
801a,
000d,
0028,
8029,
8020,
8008,
0020,
000f,
801a,
802e,
8041,
8028,
803d,
002d,
000f,
0041,
800d,
802f,
801f,
0013,
000a,
8065,
8046,
802a,
8055,
002e,
0050,
0023,
0009,
0029,
002b,
8001,
0006,
8017,
800c,
0032,
0031,
0016,
8025,
0025,
807e,
004d,
8002,
0012,
8041,
001a,
8028,
8027,
806a,
003c,
8008,
0037,
0009,
0034,
002e,
0011,
8055,
0020,
8007,
000a,
0010,
0047,
8045,
8028,
8081,
0089,
0024,
804f,
8033,
0019,
8029,
002d,
003f,
8004,
0060,
0036,
8041,
8056,
8023,
0032,
803d,
805d,
001e,
0003,
8097,
805f,
8051,
007a,
0029,
00a6,
0035,
8072,
8023,
003f,
8071,
8054,
8036,
8003,
8095,
003a,
00a7,
8024,
8049,
8002,
0015,
802c,
0070,
00ab,
0005,
8090,
00b0,
0031,
8010,
8018,
0064,
008b,
80b2,
802c,
0074,
001d,
003a,
00a2,
8066,
008f,
8075,
005f,
002a,
001d,
8076,
806e,
8073,
00e4,
0030,
0036,
800e,
0046,
8029,
0075,
806a,
0056,
8047,
8035,
00cb,
0102,
806e,
805a,
0042,
0064,
805f,
8066,
8077,
8000,
0007,
8004,
008f,
809b,
0055,
00a2,
8062,
807f,
003d,
807e,
8025,
008d,
0062,
806d,
809b,
800e,
8090,
807e,
0055,
0062,
805d,
8033,
0057,
0036,
8083,
0013,
005a,
0078,
8049,
806d,
0052,
003b,
801d,
0097,
8037,
009f,
8075,
0098,
0060,
0063,
805c,
8089,
80d3,
003d,
0070,
0062,
8001,
00a2,
8044,
0079,
8092,
0079,
8019,
8083,
002e,
0137,
804d,
8091,
002a,
00c6,
8019,
8089,
8064,
808c,
802b,
803f,
8014,
0031,
8009,
0087,
005a,
0069,
8027,
8021,
0026,
007d,
803e,
0003,
800e,
000d,
8080,
802b,
004f,
0000,
0058,
8038,
8033,
0076,
8048,
002d,
8038,
8030,
0048,
0011,
0039,
8010,
8075,
002d,
800f,
006c,
8045,
001f,
004c,
8052,
8049,
802d,
8051,
8036,
0047,
000c,
800a,
0067,
805d,
801b,
00b8,
0023,
8003,
8013,
004f,
001a,
8046,
801b,
8023,
802c,
80bd,
808a,
80db,
80c4,
8080,
8071,
0020,
008a,
800b,
00d5,
8021,
00f4,
802d,
80b3,
010b,
00bf,
80af,
8042,
8089,
0076,
8068,
80db,
0102,
80a9,
00df,
002b,
8032,
002e,
8036,
800a,
8082,
808c,
0039,
000c,
000c,
0070,
0019,
00e0,
00a1,
0080,
80b0,
0041,
008f,
803d,
80ca,
80b8,
8091,
8036,
00b1,
002a,
8047,
0085,
8064,
8075,
006b,
00d8,
00a9,
80f2,
0023,
0088,
8061,
8071,
8064,
800c,
810b,
80a1,
80c0,
80f6,
801a,
808f,
0058,
0011,
8009,
00ca,
809a,
8007,
801a,
80ab,
00d0,
00f0,
8001,
000b,
809b,
00a1,
805f,
80a4,
0169,
808e,
00da,
8033,
803a,
0011,
804a,
0000,
8015,
80e1,
000b,
0001,
0052,
00de,
8026,
009d,
00b7,
00e2,
80e2,
8018,
013d,
804b,
812c,
80e0,
8114,
800a,
00a2,
801a,
8019,
00d9,
806a,
8001,
00ab,
0020,
0086,
8075,
0042,
0055,
80ab,
800d,
8026,
002e,
811f,
811b,
80e3,
80ba,
0085,
807a,
801a,
0052,
809b,
00d7,
0098,
8043,
00ed,
8108,
00b6,
0084,
002b,
80a2,
8132,
007d,
805e,
802e,
00e8,
807f,
002e,
8005,
0024,
8004,
809f,
8011,
0027,
814e,
8014,
0032,
0050,
0086,
8081,
003e,
014a,
00f0,
80b1,
8029,
0155,
8024,
8111,
8124,
80bd,
0089,
803b,
00b7,
0013,
0172,
80ca,
001f,
00c4,
0013,
0051,
8016,
0049,
0015,
809a,
807c,
8055,
0053,
81aa,
8116,
812e,
80bb,
004c,
80a1,
8067,
009b,
8087,
00cf,
008d,
0013,
0082,
8122,
018d,
005b,
005b,
810b,
80f9,
0091,
804a,
802b,
0116,
8043,
00ef,
005a,
006d,
002d,
80a6,
803e,
803a,
8149,
00c3,
0024,
0092,
005a,
80b0,
0039,
01c5,
0148,
80d5,
0074,
016d,
803c,
80f7,
8138,
8119,
8003,
0044,
00c9,
0047,
00fd,
811f,
004a,
00f8,
0002,
002d,
8020,
0038,
0056,
8125,
8048,
80a1,
00be,
8166,
8176,
819b,
80ba,
00dc,
80cf,
80c0,
0108,
8116,
012c,
0130,
8002,
0074,
8122,
00da,
00eb,
0007,
8131,
805b,
0097,
801f,
000f,
01a1,
80ae,
0066,
8017,
801c,
000f,
808f,
80e6,
8000,
818e,
0016,
8022,
00d9,
004e,
8070,
800e,
0153,
01a4,
8120,
004e,
007b,
80aa,
810a,
814c,
811b,
8054,
8000,
0071,
004a,
0172,
8153,
809d,
00bb,
001f,
006b,
0035,
0047,
0047,
80b2,
807c,
80b8,
0034,
814d,
80ee,
81c3,
80fe,
009c,
80c4,
8015,
006c,
8137,
010a,
009c,
8014,
00af,
8150,
0140,
00ea,
0009,
80ce,
80a9,
00f5,
8014,
80d5,
016a,
8046,
801b,
0093,
8018,
8037,
80f4,
8080,
0005,
80e8,
8008,
0056,
00a5,
0066,
801b,
801f,
01a6,
018d,
810c,
0045,
006c,
800b,
8159,
817a,
810b,
80e2,
00c4,
0025,
0042,
0110,
80ab,
8035,
00b1,
00b4,
0059,
0021,
00a7,
005a,
80f0,
8055,
805e,
0082,
8187,
810f,
811d,
8054,
009f,
8088,
8075,
8009,
80a7,
0096,
00cd,
8032,
00d2,
80c9,
0108,
0080,
004d,
805b,
800f,
0153,
00a7,
800e,
006e,
00be,
8030,
00fe,
00fd,
0017,
0004,
80aa,
0001,
806e,
8027,
00ca,
007c,
804c,
807e,
80f2,
00a1,
00e6,
80c7,
0066,
002f,
800d,
808a,
80c7,
810c,
80ac,
00b6,
009b,
004a,
00de,
806f,
8050,
006c,
803a,
0004,
0034,
8003,
8036,
80d2,
8089,
0040,
0063,
815f,
806e,
808b,
0001,
802d,
8129,
8081,
000f,
8091,
008a,
0066,
00ed,
002b,
804c,
00f3,
00c3,
0028,
0028,
0019,
00fe,
007e,
803a,
004e,
0052,
0030,
004a,
00a3,
801c,
8010,
8053,
000e,
806d,
0029,
00c3,
0013,
8047,
802e,
802d,
00ac,
00dd,
8137,
0043,
0002,
8011,
80ac,
8036,
812f,
80d3,
0094,
0000,
000a,
0078,
8083,
809e,
0063,
0045,
0050,
0030,
8060,
0014,
80e0,
800b,
006e,
8036,
81a9,
8092,
8098,
807e,
802c,
80b7,
8020,
0029,
0002,
00db,
8047,
00ce,
0017,
80c2,
0115,
018e,
004c,
8070,
8052,
00c0,
00b6,
80a3,
805b,
8025,
010b,
008e,
0096,
0022,
8075,
0102,
809e,
80da,
007a,
012a,
806b,
0109,
000f,
0074,
809c,
0028,
811b,
00d9,
804f,
0000,
80cc,
80ec,
80bc,
8182,
00e2,
803a,
8062,
0053,
0032,
809d,
0089,
0036,
8015,
8075,
815a,
8000,
80c6,
80f9,
005f,
80ce,
8133,
80ad,
8015,
804d,
8009,
808a,
805a,
00b3,
802b,
00e6,
0046,
006d,
8006,
8103,
00af,
00c4,
0094,
8039,
8015,
00b9,
00b1,
8096,
802c,
0028,
007d,
000d,
009f,
0034,
8031,
0110,
809a,
80ee,
0060,
003c,
8036,
003e,
8011,
003c,
008b,
006e,
819d,
00a2,
801b,
8043,
80b5,
806a,
8093,
811d,
00b5,
800f,
0080,
004d,
003c,
80b6,
00f6,
0034,
0007,
8087,
80cb,
800a,
8133,
805c,
001a,
8084,
80c5,
808b,
8132,
8095,
8015,
80e8,
0008,
0067,
8084,
0033,
8041,
0058,
8080,
80c5,
8054,
0139,
00ba,
8054,
80c2,
007e,
0014,
80ca,
802f,
8027,
011e,
0024,
0036,
803d,
80a4,
0148,
80b0,
8098,
00ce,
008f,
8021,
00e9,
804f,
00a2,
8075,
0033,
81a7,
0070,
0053,
800d,
8122,
8135,
8071,
8088,
002d,
0059,
00a8,
004c,
8010,
80ab,
0064,
0066,
8012,
80bf,
8084,
8013,
8131,
8085,
0044,
80a5,
80a8,
808a,
80db,
801c,
803e,
8054,
0043,
0095,
8045,
0006,
8004,
0055,
0013,
806f,
80ac,
0040,
0089,
804b,
8059,
00ad,
8030,
8094,
8045,
000f,
00a1,
0031,
008b,
000b,
8047,
0109,
804c,
8088,
006a,
8026,
0019,
00a1,
8065,
8000,
804c,
002b,
810d,
0023,
800e,
8014,
8107,
8073,
0030,
8081,
006b,
807c,
00b4,
8018,
0007,
8069,
0057,
803f,
8083,
803b,
8031,
8065,
8131,
800f,
002d,
8034,
005e,
8095,
80b3,
8113,
800a,
808a,
0048,
0064,
0054,
0049,
8038,
00eb,
8041,
806a,
8051,
00f9,
807d,
0011,
002c,
00cc,
001d,
80e1,
8030,
8104,
0081,
8062,
8028,
0028,
8079,
0096,
80de,
808f,
0071,
806b,
8025,
015a,
800f,
00d0,
0031,
009f,
804d,
0048,
8044,
80ac,
8119,
8070,
8025,
80c7,
0086,
809b,
0023,
000f,
800c,
8100,
0066,
8026,
0018,
8080,
8029,
800b,
80ca,
801d,
0066,
801d,
803a,
806f,
808f,
81e7,
801c,
80b7,
8031,
00df,
001a,
0038,
800a,
011d,
80f5,
80bb,
0022,
006c,
80ba,
80cb,
0063,
0023,
80fc,
80bd,
0093,
80c1,
00d8,
80a9,
808b,
8007,
80c9,
008a,
80fa,
801f,
0104,
80b2,
8079,
015a,
0040,
0109,
8018,
0058,
80bb,
8000,
0066,
807d,
80e9,
8093,
8098,
80a1,
005b,
80c1,
0000,
0047,
808a,
808d,
00a9,
003b,
00bd,
805e,
0020,
00ca,
8116,
00a0,
80b8,
8033,
0029,
8019,
80b2,
80d1,
8013,
801c,
801f,
0044,
0029,
002d,
800b,
0089,
005f,
80c1,
009e,
00cf,
809e,
812d,
8022,
00d8,
802e,
80df,
0014,
8038,
0008,
0020,
80e7,
002f,
80a2,
0026,
8129,
8015,
0097,
806e,
8070,
0115,
806b,
0098,
8002,
00bf,
8048,
003c,
8037,
003d,
808b,
80e9,
8095,
813f,
008e,
80b4,
8030,
0052,
804f,
8022,
00a9,
0035,
8003,
801c,
8059,
00c6,
8046,
00a4,
8032,
8092,
8014,
80a9,
8002,
8031,
8023,
8050,
809c,
00b5,
80f6,
00c2,
0079,
004b,
0025,
80b1,
0094,
006b,
8028,
80b2,
802e,
0051,
804e,
008b,
00db,
007f,
00d2,
804b,
807c,
0002,
80bf,
8024,
004a,
80c9,
004a,
8137,
002c,
0099,
805a,
0052,
0090,
00e3,
80d2,
00cb,
0055,
807b,
8071,
80e2,
807a,
8059,
0001,
000c,
8051,
00df,
80ff,
809d,
00a4,
00b2,
0072,
0089,
8051,
0062,
8091,
8015,
8099,
8051,
8052,
8088,
80a4,
8073,
002f,
80a9,
8049,
006d,
80f1,
00ad,
009c,
8017,
802d,
8107,
0043,
00cb,
0017,
8107,
8043,
0041,
8081,
8061,
00a3,
8031,
005a,
8030,
8028,
0019,
8071,
804e,
0011,
80b4,
004c,
80a5,
0025,
0127,
801d,
0024,
00b1,
00c6,
8110,
00b7,
0066,
0015,
8008,
8100,
8069,
8037,
000b,
8006,
803d,
00ab,
8088,
8066,
0045,
0045,
0021,
0032,
802d,
00c7,
808e,
8027,
80b2,
8065,
0021,
80ad,
806a,
80ff,
0060,
0053,
0038,
004d,
809b,
0010,
0032,
805e,
0013,
8043,
8003,
009c,
0036,
8016,
8029,
00e7,
000b,
803c,
005f,
801a,
003d,
005f,
0087,
8004,
8016,
8001,
8005,
8051,
80c8,
8053,
0054,
0041,
0017,
808f,
0004,
006f,
80b8,
800e,
00e6,
0064,
80a8,
811e,
80c4,
001b,
0018,
0048,
005e,
005b,
8002,
8004,
805e,
805c,
0031,
0002,
002d,
00d2,
804f,
8057,
802a,
8008,
8082,
80ae,
803b,
8133,
8037,
807b,
808d,
80dc,
80ac,
0058,
00d7,
80ae,
0012,
801b,
00bc,
8009,
0043,
0091,
8141,
00aa,
00a1,
0046,
004e,
0022,
8024,
0065,
001c,
0022,
8041,
8032,
0075,
80e9,
8062,
805f,
0092,
8066,
801a,
802f,
00d5,
00f4,
8070,
00d3,
0014,
801e,
8018,
8099,
803b,
8058,
00bf,
0052,
8024,
0127,
805a,
8096,
803d,
806e,
804f,
008f,
80b8,
0006,
8082,
80d1,
803f,
005c,
000b,
80c8,
803e,
807b,
801f,
8029,
8074,
807c,
809c,
8011,
006d,
80d8,
000b,
0003,
8029,
80c7,
009c,
0098,
80b4,
00ff,
0043,
00b6,
803b,
0046,
80a3,
0046,
0062,
801c,
003f,
801a,
0050,
807e,
807b,
8040,
00a2,
8063,
8003,
8083,
00ab,
004a,
8079,
0085,
8013,
8023,
8057,
8084,
0011,
8062,
0040,
0086,
00cf,
0065,
8016,
80a4,
80f6,
8065,
80c8,
0015,
805e,
8023,
802b,
8097,
005b,
0085,
0012,
0051,
8020,
0004,
0010,
8016,
0015,
8003,
800d,
802b,
800f,
0012,
0023,
0009,
0007,
002a,
000d,
002f,
0032,
801f,
8003,
802e,
003a,
801d,
0024,
0023,
8000,
0018,
8003,
0064,
006b,
001f,
8033,
8019,
8009,
800c,
807f,
801a,
8042,
0019,
8016,
0029,
8032,
8041,
0023,
8004,
802e,
0054,
001b,
0055,
8007,
8008,
005d,
004f,
8018,
007c,
8027,
801c,
804b,
0009,
003d,
0032,
0038,
8001,
8023,
801b,
8031,
806e,
0016,
0006,
0000,
8004,
8015,
800a,
0020,
0024,
001e,
800e,
001d,
800a,
002c,
8072,
005c,
002f,
000a,
8035,
0059,
0017,
0022,
0001,
0024,
000e,
0010,
0032,
800e,
8010,
8028,
007b,
8072,
8016,
800f,
801c,
8003,
8020,
8040,
8026,
8044,
003a,
800f,
002f,
0044,
0010,
000a,
8037,
8048,
8015,
8033,
8023,
8026,
801b,
003e,
803d,
001c,
801a,
8018,
8042,
801c,
000b,
0007,
8005,
0034,
0014,
802c,
0011,
0017,
0011,
0052,
800a,
000b,
000f,
8018,
8012,
0052,
0013,
8012,
0062,
005d,
805c,
806e,
003d,
800c,
806e,
001b,
804b,
0081,
8008,
000f,
0063,
0010,
0023,
001d,
0008,
8013,
0053,
0047,
806d,
003f,
8021,
8019,
803d,
005a,
006f,
002b,
0026,
800e,
0007,
8058,
804e,
0026,
0030,
000a,
8015,
802a,
000f,
8001,
8021,
001c,
804c,
0000,
801c,
005c,
0048,
8036,
003f,
0011,
8060,
8027,
0039,
8014,
801c,
0039,
000f,
8006,
8005,
002b,
000e,
805f,
000f,
803a,
000c,
8027,
000d,
000f,
0034,
005b,
802e,
8006,
0041,
801d,
800b,
8014,
8041,
006e,
8024,
002d,
807c,
0037,
8008,
003e,
0010,
0079,
003c,
8025,
0037,
8016,
0045,
000f,
002d,
003f,
0023,
805c,
004a,
0051,
001c,
0001,
0025,
8024,
0026,
8045,
801b,
000f,
803e,
8008,
002d,
8007,
0028,
803d,
0000,
8043,
8023,
8052,
0004,
0040,
8001,
804c,
0022,
0011,
8024,
8056,
0003,
002e,
802d,
005e,
0050,
002b,
0020,
8028,
8015,
8013,
800e,
0046,
8016,
00a4,
0012,
0049,
003d,
003a,
8010,
8024,
8044,
0032,
0041,
8014,
002f,
8034,
005b,
8039,
0006,
004b,
8028,
800e,
805e,
001e,
0044,
8039,
006a,
00a6,
003a,
8054,
0014,
8040,
000e,
8034,
0013,
0008,
0010,
8002,
8042,
8015,
8023,
80d0,
806c,
805a,
003c,
8013,
801e,
0049,
8051,
801f,
00ca,
80aa,
809a,
80a2,
805b,
002c,
0084,
0049,
8040,
80b7,
0090,
8083,
80c7,
0093,
0052,
8003,
8050,
0064,
0002,
8071,
0002,
005b,
8029,
8077,
80ac,
0027,
005a,
8031,
00b3,
0033,
008e,
80c1,
801d,
0065,
0047,
8077,
80de,
8080,
009a,
0055,
0099,
0059,
0093,
801f,
005a,
003c,
0032,
0077,
80ba,
0054,
00aa,
8004,
808a,
0010,
009b,
80c1,
802e,
800c,
807b,
0055,
801e,
002b,
803c,
8001,
00b0,
8042,
0023,
0009,
8045,
0104,
00a3,
8048,
8028,
8080,
000e,
801d,
0008,
00e6,
0006,
0022,
8053,
804b,
002a,
80a0,
00ac,
0028,
801a,
0034,
802d,
809f,
805f,
8023,
00d5,
005c,
00af,
80bd,
00a6,
0033,
0007,
8050,
8036,
801d,
0080,
0057,
8016,
8076,
007b,
8023,
801b,
8008,
008f,
0086,
805c,
005c,
009b,
801c,
0013,
8022,
800a,
8011,
0090,
000d,
806d,
005f,
8055,
8094,
004c,
0019,
0035,
0126,
0088,
007c,
8081,
00b1,
00a2,
8081,
001f,
8053,
004b,
0077,
804f,
006c,
808d,
8064,
0081,
800a,
001b,
8011,
0040,
80be,
000d,
004b,
0004,
001f,
800f,
8023,
8070,
007f,
002d,
803b,
0085,
8070,
807a,
007c,
80cf,
808d,
80c1,
8045,
8072,
8002,
0024,
803e,
8110,
00da,
0074,
006e,
00b8,
8088,
0084,
007e,
0076,
806a,
804a,
8136,
002c,
80d9,
8047,
0083,
80a9,
80cd,
0006,
8004,
0043,
010a,
0079,
00c7,
80a9,
0107,
0057,
805d,
009a,
8064,
00b3,
00c4,
8031,
0093,
8066,
8013,
003e,
801b,
8009,
000c,
8041,
8026,
8050,
8034,
008c,
0091,
8020,
8036,
80a2,
0088,
0029,
803f,
002c,
8031,
8033,
8044,
8140,
8039,
80d0,
804f,
802a,
004c,
0090,
8038,
8053,
000b,
8017,
0052,
0096,
80e0,
0005,
803f,
8048,
0081,
8020,
81d4,
801f,
80d5,
8110,
00ad,
80d1,
80ba,
0076,
8094,
007e,
00e4,
003a,
008a,
8144,
00b2,
00c0,
0040,
003c,
806c,
00a5,
0020,
8009,
008f,
8011,
800d,
005c,
000c,
8011,
8047,
8047,
000d,
80b3,
000c,
00b8,
0064,
8027,
80f2,
8059,
00ba,
00a7,
80db,
006d,
800a,
8067,
8018,
815c,
8058,
814d,
805c,
0062,
00df,
00dc,
809f,
805d,
00cb,
8001,
8008,
00bb,
801e,
8010,
8094,
8042,
0009,
8092,
8113,
806d,
8115,
806f,
010d,
806c,
0015,
0016,
811a,
002e,
8008,
8039,
0107,
8104,
8034,
00ad,
8075,
0019,
804d,
003f,
0017,
8020,
0043,
8049,
001b,
005d,
8000,
8013,
803d,
80de,
800e,
8010,
800c,
00c4,
0066,
0013,
80b7,
8065,
009d,
00f1,
80d5,
0037,
8038,
005e,
801e,
810d,
80bb,
8033,
804d,
002c,
00ee,
006b,
0018,
001d,
8008,
0051,
8002,
0014,
0040,
8052,
8098,
803f,
001f,
800a,
8155,
806a,
8091,
001e,
00ed,
8098,
005b,
0034,
80ce,
0001,
007e,
00bf,
01ac,
8178,
0079,
00b7,
000d,
80b5,
8099,
006a,
801c,
8015,
0120,
808b,
0005,
0034,
8008,
0026,
808a,
8186,
8077,
004d,
8029,
00bf,
0006,
8016,
807f,
804e,
00dd,
0116,
8114,
8020,
0052,
0016,
8079,
8124,
8083,
803b,
80a2,
0027,
0012,
001d,
0038,
805c,
0051,
0025,
0032,
8006,
0039,
804a,
8082,
8010,
007b,
001b,
8178,
80d2,
8158,
802c,
00c4,
8017,
00c6,
008c,
8094,
0082,
0037,
001d,
00ea,
8139,
8011,
00a0,
0032,
80b8,
002a,
0065,
803f,
006b,
0109,
8009,
006a,
0043,
0029,
8029,
8057,
8138,
0069,
8054,
005b,
0074,
0081,
003c,
803b,
8020,
0074,
00a0,
80e7,
8064,
00bc,
000d,
8137,
80ad,
80e2,
0044,
803d,
006a,
0079,
00ab,
8043,
005a,
8008,
8036,
0011,
8026,
00a2,
0030,
8066,
804c,
8061,
0087,
814f,
80f0,
810a,
8094,
018f,
004f,
001a,
0080,
80bc,
0076,
803e,
004b,
00fd,
8162,
006a,
003c,
0098,
8025,
8039,
0039,
8042,
802f,
0161,
806e,
0046,
0014,
8035,
8020,
8058,
809f,
8018,
0002,
0000,
8059,
008e,
009f,
8103,
807f,
006f,
00cf,
8132,
80a8,
008e,
008c,
80a3,
80c2,
80f0,
8065,
8040,
0031,
009b,
0004,
008c,
8022,
00c8,
0070,
0054,
8007,
0025,
8022,
80c2,
0013,
0032,
001c,
81c2,
811c,
8138,
8069,
00ff,
001f,
0018,
0048,
8040,
003d,
8000,
8015,
0145,
812a,
00c4,
00eb,
002a,
801a,
800a,
0102,
0093,
802e,
00a9,
0084,
000e,
00f5,
0088,
004e,
808e,
8033,
8001,
0009,
8029,
00b0,
0065,
0078,
8092,
801f,
00c7,
00b2,
812f,
8068,
0086,
008a,
8177,
80ff,
811c,
0011,
0066,
00b2,
0055,
0030,
00c8,
8034,
0010,
803b,
0000,
8069,
0015,
80e6,
80e1,
80c9,
0075,
0073,
81d4,
8071,
811f,
806a,
00c8,
803c,
0083,
0087,
803f,
0081,
800a,
005c,
0031,
810f,
00ac,
00e6,
0078,
80e7,
8012,
0021,
803e,
0063,
00a9,
8007,
0014,
0065,
0003,
8026,
80a3,
0030,
8040,
8009,
0043,
0049,
004d,
00e6,
8050,
8069,
007f,
009c,
8145,
800d,
007a,
005c,
8104,
8174,
80e8,
8023,
000a,
0084,
0006,
0031,
0055,
8047,
0099,
0057,
005c,
803e,
801b,
80a2,
8174,
8015,
8004,
0006,
822a,
8047,
80da,
8085,
00aa,
8082,
8026,
00bf,
808a,
007c,
0047,
0067,
005d,
8146,
004c,
004f,
003e,
805c,
804a,
00a5,
8019,
804d,
00e9,
0002,
00d3,
800e,
001d,
0030,
80bd,
0063,
000d,
804f,
0025,
001e,
8005,
0109,
80b0,
800f,
0039,
00d4,
8176,
0054,
007c,
8027,
80c2,
80c1,
80a7,
8061,
0009,
0011,
802a,
009b,
0095,
80be,
007a,
0071,
0047,
000d,
000e,
0002,
8123,
8038,
0003,
0011,
81f8,
803c,
8174,
00b1,
0086,
001a,
00c6,
0001,
806b,
8062,
0038,
002f,
0080,
80be,
802b,
006b,
8038,
8004,
807f,
002c,
8034,
0010,
0038,
0058,
8040,
8003,
8003,
0014,
00c3,
0088,
8004,
006d,
004c,
805c,
000b,
8007,
806b,
804e,
0001,
0040,
80d9,
0036,
006b,
0020,
80a7,
8054,
8020,
0096,
8068,
0072,
8031,
000e,
0058,
8006,
8050,
800f,
0010,
8003,
004a,
805d,
81fb,
801e,
001c,
0034,
81aa,
8030,
8116,
007d,
00c8,
0058,
004a,
0042,
8011,
002d,
8017,
00b4,
0032,
8091,
8056,
004c,
002b,
8012,
800d,
0091,
001c,
8025,
000e,
0049,
0055,
0066,
0053,
8010,
0050,
00dd,
807a,
802d,
000f,
8082,
8031,
00e8,
8022,
0003,
006a,
006f,
8114,
0057,
0032,
8048,
8130,
804d,
0024,
000f,
0041,
8015,
804a,
8027,
002e,
8035,
0060,
8034,
8026,
807f,
804a,
802e,
8167,
8018,
0014,
0058,
81e2,
8065,
811f,
000c,
006d,
802e,
8014,
0004,
806d,
0028,
0004,
0021,
0049,
8031,
806b,
0042,
8018,
8008,
804c,
0089,
801b,
802b,
00bc,
8022,
8006,
0007,
8064,
805b,
0030,
0096,
800c,
0002,
0011,
8095,
0003,
0017,
809f,
8018,
0078,
0061,
8045,
8001,
001c,
8038,
80f9,
0030,
0042,
0040,
8063,
001f,
80b5,
0005,
00a0,
8014,
8003,
0010,
803c,
0048,
0076,
8034,
8221,
000c,
0060,
0073,
815a,
0066,
80a5,
0029,
00a4,
805a,
004c,
0025,
807f,
000d,
0032,
00e0,
00ad,
80a0,
808a,
0098,
809f,
0018,
0096,
0072,
003c,
8055,
0044,
8077,
0037,
001b,
0025,
8018,
0040,
00fb,
80ae,
002f,
0033,
8030,
802f,
00b4,
8060,
8067,
00c1,
801b,
809c,
005c,
001b,
805a,
809b,
0013,
00b1,
8040,
006b,
8043,
8055,
8075,
0064,
801e,
0077,
8078,
0083,
000c,
003d,
8058,
81c8,
8014,
8007,
0033,
8081,
0094,
80d0,
8029,
00ab,
8023,
0056,
006e,
8094,
004d,
8030,
0093,
8039,
0000,
80d3,
0071,
8078,
0023,
0020,
800e,
80d1,
0054,
0005,
806d,
0090,
8097,
805c,
008f,
8024,
00cc,
8055,
8057,
00c1,
812a,
8042,
0141,
803b,
00a6,
8010,
8059,
000b,
8021,
00c6,
80ee,
8053,
0022,
002f,
808b,
8061,
8022,
8078,
0028,
8054,
8020,
007f,
8033,
0019,
8050,
0085,
8002,
8178,
00c5,
8060,
806f,
8066,
004a,
816f,
0059,
00ce,
8039,
003e,
00b3,
8086,
8012,
0040,
0081,
002f,
8049,
8020,
003a,
8011,
80fc,
0062,
0037,
80c6,
004f,
00a9,
80b2,
8061,
809d,
80da,
8016,
0003,
0081,
8057,
005d,
0055,
814c,
0040,
007d,
80b8,
001e,
0062,
0019,
8057,
000b,
8007,
8061,
8039,
8066,
004b,
8070,
80dc,
8032,
0077,
0021,
8003,
0041,
0060,
001d,
0012,
0005,
009a,
8035,
80ff,
001c,
0023,
8005,
8099,
009b,
809c,
8044,
0094,
8007,
8011,
0126,
804a,
0039,
004a,
010b,
0015,
8053,
8075,
0028,
80eb,
8067,
0080,
000c,
807f,
8010,
0017,
809d,
0037,
80a7,
815c,
8043,
003d,
008b,
8073,
000b,
00e7,
8109,
8009,
00c6,
8104,
804e,
0020,
80b8,
001b,
800d,
0018,
8030,
800f,
0068,
006d,
8166,
80cf,
80c3,
0077,
003e,
0029,
8022,
00d1,
0058,
0040,
0021,
0062,
0018,
8093,
00ea,
8074,
8039,
812e,
00b2,
8015,
8026,
003b,
8095,
8058,
00c5,
006c,
00ab,
00d4,
0090,
8029,
808f,
8078,
803b,
8088,
8018,
0096,
80af,
80e4,
00cc,
005a,
802d,
0050,
80f9,
8100,
800b,
802d,
0025,
8017,
000e,
0191,
8100,
0003,
00a9,
8059,
8031,
0028,
8064,
804a,
001f,
8009,
80e3,
00a2,
003d,
003d,
812a,
809f,
8093,
8056,
8059,
806e,
0013,
0051,
007a,
007e,
0069,
0017,
0099,
8093,
004d,
803b,
8077,
80c6,
005a,
0016,
8071,
000c,
80c0,
800e,
00e7,
007e,
002e,
00a4,
00b7,
805d,
80e6,
8053,
80cc,
80bd,
0098,
0084,
80ba,
80e8,
0064,
0064,
0015,
015a,
80f3,
8024,
8027,
8093,
800f,
0023,
8042,
00a6,
8053,
8008,
00cc,
80a8,
00c7,
0045,
000d,
8021,
8057,
0083,
80aa,
0057,
8005,
804d,
80e2,
806c,
8025,
801e,
0013,
8035,
000d,
00e7,
000e,
0054,
0067,
807c,
0093,
8071,
0051,
80a4,
0029,
0007,
0047,
8147,
81de,
0085,
003b,
005b,
00ee,
8017,
8073,
001c,
0085,
00cc,
80ba,
8040,
0025,
8002,
0015,
0055,
0072,
8098,
80a0,
0046,
8108,
008f,
8003,
8067,
8004,
0003,
0041,
80c9,
0007,
0062,
804a,
0050,
0144,
801f,
007b,
805d,
0039,
8057,
8043,
00b2,
0003,
80fe,
80a3,
8097,
811c,
800b,
8028,
00f7,
805e,
8028,
0052,
00cb,
8069,
803e,
8087,
003d,
8055,
80f1,
8005,
8041,
0070,
0069,
8035,
0022,
8033,
0000,
800d,
8011,
802b,
8128,
003a,
8058,
8059,
0059,
8027,
0071,
0002,
800a,
000a,
8043,
004e,
0015,
0090,
0055,
0054,
0072,
007d,
00ae,
801a,
8080,
0058,
00c1,
803d,
803b,
0036,
006a,
8058,
8052,
0007,
0020,
0050,
8059,
0057,
0076,
8034,
804f,
8048,
0020,
000c,
804d,
00a6,
8005,
0024,
802f,
0023,
0071,
0003,
0062,
0048,
8000,
0004,
8017,
806f,
001a,
8006,
007f,
800a,
80a3,
8017,
0028,
8004,
802a,
004b,
803a,
8015,
001c,
8020,
007f,
8047,
003b,
0020,
8040,
8072,
00a5,
0044,
8089,
001b,
0047,
80ab,
0042,
8002,
8049,
802f,
8012,
0051,
8005,
0012,
0051,
8000,
0040,
00af,
8014,
0024,
8047,
8010,
001a,
001a,
0067,
008f,
8060,
800d,
803e,
802f,
804c,
8043,
0012,
004c,
8004,
00aa,
003e,
001b,
0021,
002c,
004f,
8044,
8078,
8003,
801d,
0048,
801f,
8000,
0029,
8010,
0057,
8007,
8015,
8017,
8029,
803c,
8029,
803e,
8020,
0020,
0015,
8041,
8019,
0006,
0019,
8050,
0026,
001d,
8006,
0037,
000c,
8009,
001a,
8049,
801d,
8014,
801e,
8036,
8011,
8011,
807c,
000e,
8029,
002a,
0058,
8002,
0087,
0036,
0059,
8043,
8029,
002f,
0074,
8035,
0033,
0036,
0041,
8009,
0025,
8020,
8041,
0004,
8059,
0034,
800e,
8040,
0017,
001f,
0032,
00a1,
8003,
803f,
8053,
0006,
003e,
000f,
0000,
801b,
0024,
8012,
000e,
801e,
003c,
8008,
0041,
8009,
8034,
8026,
8027,
000e,
001b,
0061,
002f,
0013,
804e,
004d,
803a,
0065,
8003,
8020,
801e,
004b,
000d,
001b,
0032,
800e,
001f,
8045,
8025,
800e,
800e,
8026,
8011,
8079,
0047,
8040,
0006,
8037,
000c,
0037,
8031,
8016,
000d,
005a,
8049,
002e,
801f,
8055,
8046,
00a4,
8010,
8000,
000d,
0004,
0015,
809c,
0045,
0028,
001e,
8005,
803f,
0012,
8021,
000d,
809f,
001a,
0024,
8022,
000b,
002c,
8078,
8029,
001c,
802d,
0033,
0001,
801e,
0040,
8039,
8041,
0041,
0010,
8002,
8031,
006b,
0068,
802c,
8006,
805e,
802b,
8026,
8059,
8034,
0022,
800a,
004b,
001d,
800d,
8045,
8042,
804e,
800b,
800f,
802a,
8052,
005e,
0021,
8072,
0041,
0029,
0029,
8000,
8005,
8065,
8045,
000e,
804f,
0006,
0008,
8024,
00ae,
003d,
8034,
8002,
000a,
801f,
0029,
000b,
000b,
001a,
0038,
8051,
0000,
8001,
0007,
0079,
0042,
001c,
800e,
801e,
008c,
003a,
804c,
803c,
001d,
8040,
0032,
0015,
0076,
8009,
001a,
001f,
0014,
8033,
0040,
8025,
8040,
0046,
8027,
002e,
805c,
0004,
003f,
0002,
00a3,
8066,
003a,
8036,
8046,
8048,
001d,
8008,
001d,
8036,
0030,
800a,
0018,
0095,
0016,
0002,
0061,
005f,
0073,
8081,
006e,
0053,
0070,
0051,
0081,
8040,
0044,
800e,
80dd,
0079,
005c,
0026,
0056,
0088,
80a6,
80a1,
8074,
00a5,
0089,
8081,
0106,
8057,
808d,
0005,
80cd,
0020,
0016,
009a,
80cc,
00aa,
804c,
003f,
809d,
8071,
80bc,
8020,
00a2,
009d,
803e,
010f,
8069,
004e,
805e,
8010,
0032,
0065,
0098,
8062,
8059,
001b,
0042,
0018,
8034,
006b,
0070,
003e,
8045,
801c,
8020,
00b3,
0053,
0073,
8073,
8060,
800a,
0026,
0062,
8005,
80da,
8037,
801f,
0088,
013c,
0053,
00b1,
0018,
007e,
007d,
8096,
8000,
80c7,
0033,
008f,
8033,
0093,
805e,
802d,
00ac,
8090,
0056,
0078,
80a3,
804e,
800d,
8047,
00fa,
0026,
8123,
8040,
80b7,
00ec,
008c,
8067,
00d8,
8077,
0046,
8041,
0025,
0040,
8117,
806b,
000e,
8029,
0019,
804a,
80f9,
002d,
009c,
0045,
010c,
80f9,
0018,
8007,
005d,
0009,
0037,
80ef,
001f,
8097,
005a,
014a,
007d,
80b5,
0009,
0014,
8060,
002c,
00c2,
008e,
00da,
0045,
0078,
8089,
0040,
8075,
0097,
0088,
0015,
801b,
8071,
808f,
00f0,
8077,
8060,
00de,
0003,
80a3,
0055,
000c,
0023,
801c,
80b2,
8117,
80d1,
008c,
8054,
808d,
005d,
808d,
001a,
0037,
8029,
801f,
8131,
8098,
0002,
80e1,
0014,
0021,
80c3,
001a,
0057,
803b,
00ad,
80f4,
804c,
0023,
009a,
003b,
809e,
80fe,
0024,
802c,
0049,
00ce,
0049,
801a,
007f,
8067,
0013,
802d,
803c,
00f1,
0055,
8022,
0070,
8045,
808b,
80c8,
000d,
8050,
007b,
0001,
803b,
8068,
8003,
80db,
8019,
0036,
8099,
8024,
0055,
006a,
8078,
0015,
8059,
8086,
801a,
002f,
804d,
8055,
803b,
0057,
0002,
003d,
80a9,
8013,
801e,
8132,
809f,
80b6,
0004,
8034,
002b,
8021,
00c2,
80a7,
0078,
8007,
8032,
8061,
0069,
009c,
8106,
813d,
8070,
80c7,
0086,
012e,
8046,
807b,
8030,
804a,
0022,
0039,
8054,
015b,
8005,
004c,
008a,
0014,
0035,
80d7,
00d2,
0097,
006b,
8004,
0002,
800e,
0076,
802e,
802e,
8017,
8111,
8052,
0003,
8005,
00b0,
0078,
809f,
80ef,
80a5,
00a4,
0069,
80af,
001d,
802d,
0040,
009e,
808c,
8021,
0015,
8084,
008e,
8085,
006b,
805a,
8017,
001d,
0060,
805b,
0035,
8059,
8089,
800f,
0003,
002c,
80b5,
81f7,
809c,
80b2,
0003,
0126,
8063,
80a0,
00b2,
8071,
0037,
006f,
0048,
016e,
8058,
0010,
0083,
0008,
0026,
8039,
008f,
0041,
800c,
0058,
8007,
804e,
004c,
005d,
8041,
80b6,
8102,
806f,
003c,
804c,
008a,
00a8,
8001,
803d,
80a0,
00bc,
00be,
808a,
8010,
803f,
0065,
0016,
80c1,
8060,
809b,
8023,
004c,
809e,
0079,
8061,
0047,
003e,
0037,
8047,
006c,
803c,
80b5,
0051,
8055,
003b,
802f,
8216,
8005,
80b5,
004c,
014c,
806d,
0028,
0068,
802d,
803b,
0035,
800c,
0092,
0056,
0027,
00fb,
0094,
0001,
004b,
0050,
8022,
8031,
802a,
80a8,
0045,
006d,
8005,
800c,
804a,
8042,
807c,
800f,
00a8,
0094,
00ab,
002f,
80e7,
809f,
8001,
0030,
8025,
0015,
8048,
0023,
0022,
808d,
8042,
8023,
80a1,
000f,
0018,
800e,
8076,
8054,
002e,
004c,
80a7,
8043,
8040,
8075,
0046,
0042,
0087,
8069,
8201,
8028,
80e1,
005c,
016c,
802a,
00b9,
0031,
8068,
00a8,
8010,
8030,
007a,
001f,
0062,
00e4,
005b,
8033,
8008,
004a,
8005,
0038,
0003,
8081,
8017,
0049,
8031,
8076,
804b,
009d,
807b,
0028,
000a,
0091,
0054,
006a,
815c,
8011,
003c,
005d,
80d6,
8045,
8022,
0032,
809b,
804f,
80ba,
0041,
8090,
8071,
0007,
004a,
000f,
0065,
002c,
003a,
8012,
002c,
8075,
8072,
801b,
005e,
00d9,
8081,
81fa,
002f,
8030,
8000,
0129,
0039,
00bd,
8019,
002d,
8043,
804f,
0032,
00b5,
0028,
0044,
0004,
0008,
805e,
0055,
0011,
001f,
004d,
0086,
8084,
000c,
001a,
003b,
0022,
8024,
001d,
802e,
0062,
002f,
00c1,
005f,
0007,
80a6,
8086,
001c,
007c,
80d5,
8039,
000e,
0082,
80a3,
002f,
8055,
80b8,
800c,
002d,
807b,
802c,
802e,
0065,
8010,
0013,
80bb,
0008,
0024,
8097,
8043,
0047,
00c5,
0095,
81cf,
0022,
804f,
006f,
0102,
002a,
006b,
0013,
0018,
8026,
0014,
0029,
00ca,
0014,
0018,
000a,
0005,
805b,
006c,
0047,
005a,
0065,
00b2,
008e,
0074,
002a,
0044,
8031,
0100,
0023,
007e,
0069,
0036,
007b,
005f,
0073,
8024,
8076,
0081,
00a3,
8047,
8033,
8021,
0003,
801c,
0073,
8077,
0053,
0013,
0068,
8065,
0073,
0009,
004c,
8054,
8028,
8054,
0048,
007f,
8019,
812b,
8035,
009f,
00ac,
818b,
0006,
80a8,
0016,
013d,
000d,
0096,
001d,
0017,
8020,
002c,
0036,
0089,
802a,
000a,
0076,
0028,
0004,
8029,
005c,
004c,
0098,
0048,
00af,
00df,
0013,
0077,
0015,
0087,
006a,
0037,
8029,
800d,
004a,
0023,
0074,
8024,
803f,
0016,
003d,
805a,
8023,
008b,
0018,
8096,
8013,
8008,
8005,
8006,
00aa,
805b,
001c,
8006,
0082,
0037,
002e,
800c,
002c,
0027,
80a7,
8120,
8025,
0067,
009d,
8193,
8056,
8070,
0046,
00e4,
8070,
003f,
0052,
00a4,
803c,
00c4,
00a0,
002f,
8005,
0008,
0089,
002a,
803c,
002a,
8015,
006d,
009b,
005f,
007b,
0004,
0039,
8021,
8035,
0073,
001f,
8036,
0031,
005c,
8010,
0006,
802a,
802b,
8049,
0079,
00ad,
80d2,
0065,
8034,
8040,
8022,
004a,
8025,
004b,
0026,
802a,
8074,
0088,
0018,
0058,
00b8,
0019,
8005,
004f,
8040,
8064,
807a,
002a,
00b3,
001b,
8178,
0054,
8094,
009a,
00e5,
803c,
007c,
0039,
0076,
80ae,
0094,
0056,
008d,
8042,
803d,
007c,
000d,
8034,
8069,
004a,
00b8,
0011,
8025,
00b9,
00ad,
005b,
0082,
800f,
003e,
0025,
801a,
0047,
004c,
0045,
005f,
003a,
8017,
808c,
008a,
0058,
80a2,
009a,
001f,
8023,
8087,
8019,
00ce,
0054,
0028,
001f,
80ac,
0015,
007b,
801f,
0021,
0003,
001d,
0005,
002e,
8082,
006a,
003a,
00ae,
8013,
80f3,
8060,
80f5,
0034,
017a,
805a,
007f,
0028,
005d,
8085,
0043,
0093,
0066,
0035,
8046,
0020,
002f,
8020,
0039,
00b4,
003c,
8042,
0063,
006a,
0024,
0057,
0015,
000c,
0052,
007c,
80bd,
0007,
0075,
80be,
000e,
00c3,
8034,
806b,
0054,
0001,
8071,
0051,
800a,
8030,
80d4,
800d,
0009,
009a,
004c,
000c,
8036,
0037,
002e,
0046,
0064,
8024,
8079,
804b,
001f,
8028,
0038,
8066,
0041,
0016,
8122,
803e,
80a1,
004a,
00cf,
8053,
009b,
0064,
007d,
80ca,
003f,
002d,
004c,
802f,
80cc,
0009,
8033,
0006,
005c,
802e,
007f,
00bb,
00aa,
0092,
0078,
0015,
8013,
8008,
005b,
0075,
0032,
800e,
009a,
8082,
000f,
0086,
8078,
000b,
002f,
8037,
80b6,
0065,
0062,
8060,
8094,
003b,
004f,
006f,
003b,
0053,
807f,
8019,
002b,
0023,
0099,
803b,
8089,
000e,
0037,
8047,
0008,
002f,
0061,
0011,
80ad,
8001,
8060,
00bc,
0127,
8033,
0029,
0089,
800e,
80ca,
0051,
0056,
801e,
0080,
80c2,
0037,
8031,
803d,
8010,
0043,
801d,
0061,
0058,
006b,
003d,
001e,
800f,
0030,
000b,
8003,
800f,
0020,
00a5,
80ac,
8013,
00c2,
8049,
0055,
002b,
8027,
80d4,
008f,
00c7,
8075,
807b,
0062,
0052,
007a,
8012,
0044,
8091,
0064,
0053,
0029,
00aa,
0073,
801b,
0000,
0059,
0014,
8001,
800e,
8012,
8055,
8035,
804b,
805f,
00ac,
00fb,
807a,
0057,
00b8,
0043,
80d4,
008c,
005a,
002c,
800c,
8097,
0091,
0055,
805d,
800f,
0055,
0021,
001c,
0089,
805b,
0014,
801a,
80aa,
8036,
8015,
0032,
809e,
0040,
004c,
80f5,
0031,
003f,
8028,
8047,
0000,
8027,
808d,
0059,
803c,
80bd,
800d,
8046,
006e,
006e,
80a6,
004a,
80e1,
0032,
0013,
8012,
0067,
00d5,
003a,
0046,
001c,
0040,
8062,
0069,
8012,
8042,
80cf,
008a,
8002,
0017,
0096,
80a4,
0027,
007d,
00aa,
0012,
00c7,
006a,
0055,
0072,
8057,
8000,
0044,
0056,
004e,
0051,
803f,
805c,
000e,
8075,
00ad,
0010,
801d,
8024,
0006,
8057,
8054,
0056,
00e1,
8180,
0035,
008c,
8060,
0028,
006d,
0021,
805f,
800e,
801f,
80c3,
000f,
002d,
0097,
0073,
801c,
0005,
80db,
0015,
0003,
8029,
0094,
005d,
002c,
0005,
8053,
007e,
8032,
0059,
801b,
804a,
804e,
008f,
803e,
8037,
004c,
8078,
800c,
006d,
006d,
8033,
007c,
00ba,
0069,
800d,
8062,
0030,
804e,
0002,
801c,
0019,
803b,
0049,
00a6,
8016,
0040,
804a,
802e,
0025,
8018,
8042,
802a,
0029,
007e,
8107,
0052,
005c,
80a4,
801e,
003a,
0011,
8084,
8072,
8012,
807f,
800b,
0047,
0033,
804c,
803d,
0010,
8110,
0073,
0047,
805f,
0080,
0004,
8040,
0025,
804f,
0017,
8096,
005f,
8076,
0026,
80b1,
0061,
8071,
0034,
004d,
8074,
0027,
0097,
000f,
8062,
0035,
0035,
0064,
8009,
808b,
0019,
0006,
002f,
0056,
8031,
8058,
0010,
8026,
8063,
0052,
8089,
807e,
8014,
001b,
0053,
808b,
0000,
00ef,
8158,
00c6,
0068,
8048,
8010,
8046,
80a1,
8001,
0020,
8026,
8049,
801a,
8075,
0052,
803e,
807f,
0002,
80f6,
8049,
0029,
0026,
00d2,
009a,
800d,
801c,
0034,
000c,
000e,
00bc,
8031,
801b,
8059,
003f,
0019,
8052,
003e,
805e,
003e,
00c4,
805e,
8065,
800f,
8025,
0014,
8048,
80c5,
0059,
0054,
8063,
0036,
808e,
8084,
8011,
8082,
8085,
00ab,
80fa,
8085,
0053,
8046,
0092,
807d,
004b,
00b2,
812e,
8008,
007d,
805e,
005f,
8030,
807b,
807c,
80d5,
003e,
80ae,
0065,
8022,
8070,
805f,
80ff,
8024,
80db,
006c,
8053,
000d,
0099,
00c9,
0008,
806b,
8010,
8014,
0010,
00bc,
804a,
80d6,
8065,
005a,
809d,
8096,
005a,
0034,
8010,
00ca,
006b,
805c,
8002,
00ee,
00d0,
807f,
80b8,
8053,
0010,
0056,
008d,
8033,
8074,
0003,
8049,
808d,
0080,
8049,
804f,
0015,
005f,
004a,
801d,
003f,
00b5,
8042,
0007,
00d0,
8008,
806e,
8012,
8065,
801a,
804d,
0044,
80aa,
000f,
8002,
004f,
8066,
8094,
8027,
8056,
802c,
0003,
0031,
000d,
803f,
8030,
8048,
8024,
802f,
8032,
0052,
8064,
807c,
800a,
0060,
812b,
80c0,
0102,
0007,
8002,
0065,
003d,
000f,
0036,
00b7,
0195,
80c8,
802a,
80fa,
80c8,
0011,
012b,
0012,
80c7,
0048,
00ec,
813f,
00aa,
80ca,
805e,
8003,
00f3,
004e,
00ba,
005e,
0035,
80d6,
0017,
0082,
0039,
8063,
0063,
000b,
0063,
8116,
006e,
0032,
0027,
00a7,
00b8,
8131,
0028,
004a,
8073,
802f,
8062,
001b,
00aa,
80aa,
8046,
00c0,
00c2,
8020,
814c,
0042,
8073,
00be,
8046,
8010,
80f8,
80ce,
004d,
0099,
0061,
8011,
002a,
8003,
8075,
00fa,
00ea,
8074,
807c,
8090,
8050,
003e,
015b,
0026,
8054,
8097,
00c8,
812d,
0051,
8036,
0045,
801f,
00be,
00da,
8001,
00aa,
802a,
00a3,
0138,
00c4,
006b,
004d,
0054,
007d,
00ce,
80d7,
00b6,
0061,
805b,
002f,
0047,
80bf,
005b,
805f,
8089,
808a,
811c,
00da,
006c,
807b,
8015,
801c,
0084,
8061,
80d6,
8048,
0024,
00ec,
805c,
807e,
809b,
0052,
8053,
8056,
8016,
0024,
8051,
0048,
00b9,
0038,
8047,
80b7,
8068,
80d3,
8092,
805d,
007c,
8043,
8059,
0002,
00c1,
8025,
0087,
806e,
802f,
8003,
8014,
8014,
00fc,
80e1,
0037,
804c,
0068,
00f9,
8010,
011a,
00c3,
00c2,
808f,
0028,
005c,
8054,
8062,
804e,
8027,
800a,
800a,
0018,
80c4,
005b,
80c2,
801b,
0106,
802a,
00dc,
00b4,
803c,
0067,
80a1,
0053,
80ba,
0023,
000b,
0044,
001b,
8029,
8002,
005d,
0005,
0003,
8069,
000e,
0020,
0003,
8002,
8026,
804a,
0043,
0039,
0015,
8014,
8065,
0039,
001b,
0016,
802f,
801b,
801c,
8022,
0016,
0018,
0047,
8011,
8014,
0046,
8028,
0006,
0005,
8003,
0031,
8027,
0014,
0015,
8004,
8008,
8065,
0003,
005d,
804b,
800f,
8009,
0006,
0016,
802d,
000d,
00a0,
001f,
0005,
0042,
0035,
0021,
8014,
806f,
000b,
800f,
801e,
0053,
000c,
803c,
0009,
8066,
8035,
000e,
0033,
0025,
8003,
004b,
001d,
803e,
8010,
8041,
0016,
8014,
004c,
8032,
8014,
0056,
8022,
808a,
000e,
8001,
8001,
003e,
8011,
8006,
0034,
801f,
800b,
006d,
0036,
003e,
803b,
8007,
8053,
8022,
8031,
000a,
0017,
8014,
8027,
0033,
803e,
007a,
003c,
8020,
0009,
802d,
003b,
8017,
0007,
8016,
8011,
801a,
0018,
0006,
8023,
8025,
8056,
8017,
003a,
8091,
8042,
000b,
804a,
0053,
80e1,
8037,
800e,
002e,
0033,
001b,
0066,
0012,
8026,
0047,
004f,
0024,
000a,
000e,
003d,
0029,
8035,
0077,
0034,
809b,
00eb,
8022,
8026,
80a2,
808b,
803d,
800d,
8019,
8016,
8068,
0068,
801b,
0030,
004c,
005f,
000f,
0087,
800b,
803c,
8081,
8037,
801e,
0007,
0019,
0053,
800f,
002c,
0017,
803d,
0061,
0084,
8002,
0075,
8006,
0035,
0054,
8019,
0028,
8023,
80e4,
8078,
000a,
00cf,
00b8,
002c,
8061,
801f,
8087,
8057,
007a,
0004,
0098,
008b,
0010,
005a,
802c,
8003,
80b5,
00c6,
800b,
802b,
008d,
004b,
8064,
0034,
8090,
000b,
000c,
8028,
8047,
800e,
8062,
00a6,
0033,
808d,
801b,
80b3,
0096,
000b,
0026,
0063,
8062,
008b,
0019,
003c,
00ad,
8080,
0019,
8049,
8099,
805f,
8000,
8000,
806c,
8008,
0034,
00e7,
8061,
8060,
800b,
0018,
00b2,
0053,
8049,
8078,
807d,
803a,
012e,
8071,
8025,
801a,
0054,
00cc,
0069,
0038,
008b,
009f,
002f,
00e0,
8014,
8081,
80c9,
011a,
00b7,
80a4,
00a3,
80e0,
8071,
012e,
8051,
002c,
8050,
003a,
8054,
806f,
000a,
00f2,
006d,
803b,
8041,
8092,
0072,
009d,
80b6,
0059,
801f,
001e,
8089,
80de,
809d,
806c,
8090,
006e,
000f,
00bd,
8029,
80e5,
008b,
00ce,
0002,
0036,
80da,
8066,
0015,
0030,
00b9,
8087,
0075,
8050,
806a,
0076,
00ca,
0007,
8050,
8013,
001e,
8027,
8042,
8015,
00e3,
003c,
002d,
00d9,
0057,
0047,
8128,
00f5,
006a,
8056,
801c,
804f,
8040,
0031,
80b8,
0039,
804e,
8084,
8099,
00c2,
002f,
0087,
0038,
804b,
004b,
8044,
0020,
8034,
8058,
0039,
8098,
00c3,
005e,
807f,
0046,
004f,
8004,
0010,
8096,
801e,
8008,
8032,
8059,
0049,
000a,
801d,
8080,
804d,
8016,
8016,
008b,
8087,
8010,
000e,
004b,
00c3,
00ba,
001f,
0030,
8050,
8062,
80a4,
806d,
0019,
0086,
0032,
0012,
0058,
0007,
8065,
8104,
8006,
005d,
8059,
806d,
8022,
803b,
0016,
80d3,
004d,
0014,
810e,
804c,
00ca,
008f,
004d,
0003,
801c,
8051,
0023,
0019,
80a3,
806b,
8033,
803d,
0091,
0059,
800d,
0037,
0015,
0022,
0005,
001a,
80dc,
8012,
8010,
8032,
8052,
004b,
800d,
800a,
0019,
0019,
004d,
00a2,
0020,
801b,
00a6,
805a,
004e,
0054,
002e,
8014,
0033,
8055,
8026,
804c,
0018,
0028,
8099,
00a0,
001e,
001f,
005c,
80bd,
0019,
801b,
0027,
8013,
8099,
8028,
8045,
8105,
003e,
802c,
8081,
8069,
009d,
8001,
802b,
0021,
8046,
802b,
8050,
000e,
8061,
80e1,
8070,
0012,
002b,
010a,
8057,
8045,
8028,
8008,
0010,
8081,
8014,
8095,
807d,
0091,
0000,
006d,
8050,
0059,
0019,
8047,
008a,
8050,
8052,
8069,
007e,
8045,
007f,
00b8,
0043,
8009,
006e,
0003,
8080,
000e,
0062,
00c4,
0002,
004c,
0051,
0032,
0093,
8010,
001d,
0013,
00c9,
0005,
80b5,
801d,
801e,
80aa,
8048,
0036,
8083,
8066,
00a0,
006c,
0016,
007e,
804e,
8055,
8093,
0044,
802e,
805e,
8052,
000d,
001a,
0033,
8005,
003d,
8002,
807e,
000e,
80d8,
803b,
8049,
0063,
8052,
0055,
8014,
000c,
0011,
8020,
8061,
003b,
0042,
001f,
80c2,
009a,
8057,
002c,
008d,
0057,
8024,
0075,
8052,
803b,
003a,
0013,
012a,
8030,
0028,
8007,
000e,
803f,
00c5,
0041,
003c,
0088,
000c,
80ae,
8007,
8022,
8044,
8066,
000b,
807a,
8009,
0088,
0012,
0056,
00b8,
8048,
8077,
800c,
0012,
004d,
0007,
8068,
006a,
0020,
005f,
801a,
006a,
8094,
8053,
0066,
808e,
806f,
807a,
0099,
0042,
0008,
0006,
8006,
008f,
8099,
0001,
004d,
0003,
0038,
80d8,
0003,
0006,
002a,
0067,
00ca,
801d,
0049,
80a0,
0032,
001e,
807d,
0147,
0025,
0004,
805f,
007c,
802b,
0068,
800e,
8007,
00fb,
8044,
0035,
0019,
000a,
802c,
002c,
0051,
801a,
00fc,
8026,
804b,
0037,
00d8,
8077,
8062,
8060,
0011,
0005,
804d,
8055,
00eb,
0078,
00b4,
002e,
001c,
8033,
8039,
007e,
804b,
006d,
804d,
009d,
8007,
800f,
0023,
0080,
007c,
802e,
800a,
8014,
8043,
008f,
80ee,
0013,
002e,
8027,
00af,
006d,
801d,
0033,
8010,
001d,
0055,
0006,
018a,
0044,
0054,
8029,
0014,
0005,
007a,
0024,
8026,
002f,
0086,
0008,
802d,
0047,
8020,
8004,
0005,
0068,
0080,
8021,
0005,
00ea,
0036,
8059,
0003,
0010,
0069,
8008,
803e,
808d,
005a,
004f,
0049,
0057,
000c,
0019,
004d,
8012,
809a,
800f,
802b,
8000,
0011,
0027,
0025,
0056,
00c6,
8065,
80e3,
0005,
0010,
004f,
80e4,
0042,
002c,
8006,
0044,
0080,
008e,
802a,
0021,
8042,
800e,
0053,
00fe,
006a,
8044,
0011,
004e,
8025,
0046,
004d,
802d,
007f,
002b,
002a,
0000,
0051,
0061,
0035,
006b,
0067,
004b,
0006,
8060,
0098,
003b,
8020,
001d,
800d,
0025,
0047,
0035,
80ca,
000b,
0071,
0002,
002f,
001a,
801a,
00c9,
002a,
806a,
8024,
8031,
0092,
8028,
0015,
800d,
0027,
8003,
8001,
8184,
802f,
00e3,
00c0,
817e,
8002,
006b,
0033,
0084,
0080,
0063,
000c,
802b,
807b,
0015,
0018,
00e4,
005e,
800c,
001b,
00a8,
0017,
807d,
006e,
0059,
0042,
8008,
0044,
8012,
002e,
0051,
807b,
8026,
006c,
0084,
8031,
0018,
004e,
004b,
803e,
0035,
0016,
0005,
0049,
8056,
8090,
0047,
0059,
0018,
0003,
806f,
008d,
0067,
003e,
8040,
805b,
008a,
0079,
0036,
0078,
0041,
0066,
801e,
8052,
80e7,
003b,
0092,
0022,
80ed,
8018,
8015,
800d,
001f,
8089,
800e,
0005,
0047,
80a8,
0027,
000a,
00fb,
0082,
807c,
003c,
00c6,
0000,
8014,
0060,
8003,
009b,
8027,
004e,
0060,
0025,
0064,
0033,
006b,
00ad,
00a1,
000b,
0025,
003b,
001a,
8041,
0046,
0018,
8023,
0025,
8064,
0021,
0024,
0000,
001e,
003a,
0024,
005d,
005a,
0031,
807c,
8007,
8027,
0040,
0017,
8008,
8047,
0058,
003e,
8031,
8055,
801f,
006e,
0019,
8165,
8005,
8078,
8017,
005e,
8046,
801e,
8028,
0055,
8079,
006f,
0091,
009a,
0066,
80a4,
0063,
004c,
0056,
801b,
0037,
0098,
0044,
0098,
0049,
0082,
00a6,
0076,
805f,
003f,
0085,
0085,
803b,
0025,
0039,
800b,
0083,
0050,
8067,
0015,
0055,
8024,
0064,
801a,
8031,
0003,
003e,
0055,
0011,
0013,
0082,
0010,
001d,
80ae,
007b,
0038,
008e,
8029,
0026,
0006,
8052,
0005,
8007,
001e,
0066,
8111,
805e,
8057,
007c,
0074,
806c,
0022,
0025,
8006,
80a6,
001a,
8016,
007a,
805c,
000a,
0014,
007e,
8035,
0050,
0025,
0045,
0060,
002d,
0074,
0072,
003c,
0065,
8057,
005a,
8020,
002f,
001f,
8050,
8040,
0057,
0019,
800e,
001f,
0020,
009c,
80be,
00bc,
007f,
003b,
0001,
0059,
0084,
0054,
0037,
0064,
8001,
001d,
8055,
0043,
8023,
006a,
003a,
0082,
009f,
0011,
0069,
8047,
0013,
0052,
80ef,
8091,
805e,
0021,
0076,
80a9,
0090,
0066,
800c,
8028,
0051,
0083,
007c,
8069,
807b,
0046,
8033,
8052,
801a,
000d,
802c,
0026,
005a,
00c6,
000a,
0073,
003f,
8027,
003d,
8011,
006b,
003a,
0018,
800e,
0019,
004b,
8024,
0051,
00c8,
00b5,
8080,
00cf,
0045,
8016,
805e,
8072,
0078,
0061,
002d,
0058,
80b3,
0088,
8000,
00d9,
0092,
803d,
801a,
0054,
001b,
8010,
006e,
0003,
002c,
00c6,
8055,
004a,
808c,
0096,
0082,
8055,
0036,
0024,
0001,
80f7,
0014,
000d,
00c4,
008d,
80d8,
0011,
8071,
80bc,
8024,
0071,
0015,
0033,
009d,
0021,
0040,
002f,
003a,
0031,
012d,
8037,
8037,
0034,
004a,
80ca,
0072,
0044,
0030,
0025,
0045,
8038,
802d,
0037,
0078,
8050,
8029,
007b,
00a1,
8019,
8058,
005f,
80b9,
0075,
804e,
008c,
004b,
801b,
8098,
004f,
802b,
8064,
004e,
009d,
0099,
8026,
0007,
8061,
806b,
0054,
0051,
808a,
8017,
0047,
804a,
8101,
801d,
8021,
00dd,
0036,
80c4,
0053,
0029,
8088,
0001,
004e,
802f,
0023,
0091,
00b2,
0004,
0093,
0014,
800a,
00c9,
0043,
003d,
8020,
0008,
8121,
002d,
005e,
807a,
0055,
007a,
0049,
80f8,
8026,
0038,
8038,
8053,
8039,
006d,
0096,
807c,
004a,
8117,
007a,
000d,
00eb,
0061,
0011,
803c,
8000,
0067,
804e,
0011,
00c7,
0075,
8032,
800f,
0015,
002e,
803f,
006c,
8090,
007e,
0021,
0097,
80a2,
0051,
0048,
001d,
0009,
8082,
008f,
8010,
8056,
0045,
005e,
0003,
808b,
0067,
0088,
002a,
8023,
0026,
8005,
00ca,
0018,
8046,
0000,
002d,
808f,
8057,
00e1,
80a2,
0045,
0043,
004c,
0009,
8045,
0025,
802f,
8090,
005d,
004f,
8019,
802d,
0017,
80e6,
003b,
8029,
0084,
007c,
809c,
001a,
0057,
0044,
003f,
8019,
006e,
0065,
8073,
001d,
0063,
803b,
8000,
0049,
80b7,
801a,
005b,
801f,
80a5,
0016,
006a,
0027,
000f,
80bd,
0075,
0026,
0011,
004d,
008d,
0001,
8036,
8032,
000c,
000a,
00c7,
8045,
8000,
0028,
8007,
8011,
002c,
005e,
8099,
0015,
0031,
8042,
002b,
8020,
808b,
0011,
007a,
8041,
8082,
8053,
8007,
0054,
0032,
804d,
0068,
8067,
006b,
000e,
0092,
005e,
004f,
8046,
803a,
0004,
0032,
0042,
0012,
001d,
806f,
8062,
8035,
8021,
0005,
009a,
8086,
0030,
0031,
0011,
80bd,
0051,
001e,
000f,
002b,
80f8,
0089,
8019,
0039,
0006,
007b,
00db,
8079,
8021,
0049,
0069,
0035,
0028,
802b,
002d,
00ac,
0019,
0035,
007f,
80d7,
0045,
0064,
8010,
002f,
8032,
8060,
0035,
8043,
0020,
8094,
8095,
8036,
003b,
001e,
802d,
0009,
80fa,
0091,
004c,
00ca,
802f,
8027,
000a,
8022,
0012,
0067,
00aa,
002d,
000c,
8021,
801a,
8003,
801d,
003e,
005c,
8081,
0084,
0052,
8016,
80e3,
004b,
805d,
8070,
0060,
80e9,
000f,
007a,
0036,
0006,
8038,
800a,
8034,
8055,
8053,
00a0,
8093,
806a,
802d,
800d,
0094,
8064,
0048,
00b0,
8065,
004b,
004c,
8011,
801d,
8036,
807e,
8035,
802e,
0051,
807b,
0026,
0037,
000d,
802f,
8121,
803e,
80ac,
002c,
8047,
0013,
003a,
0011,
8091,
803d,
0009,
0022,
00b0,
006c,
8060,
8099,
008f,
00c1,
8041,
8092,
0082,
8082,
8010,
0109,
8043,
80b8,
003f,
0058,
004e,
0061,
808c,
800f,
001d,
001e,
007c,
0028,
808d,
8032,
8004,
80ad,
00c6,
806c,
812b,
0062,
8057,
00e1,
80f9,
0084,
0123,
8080,
0033,
00ed,
80a4,
8044,
803c,
80b5,
0014,
000c,
000e,
8062,
8003,
8024,
801b,
80a5,
8114,
807c,
0003,
0024,
0058,
0086,
007a,
003c,
000b,
803d,
0001,
8007,
0026,
00d8,
8042,
80ea,
00a2,
0055,
8075,
80aa,
0099,
802b,
8011,
008a,
009e,
8093,
0070,
00b5,
0109,
8078,
8088,
8077,
80c3,
00b0,
00fa,
0079,
802e,
8028,
008b,
80e0,
0127,
80d5,
8012,
8001,
0015,
00c8,
0028,
0059,
002f,
8021,
0079,
006f,
0033,
0013,
0035,
8021,
802c,
8047,
006d,
0095,
805b,
003e,
8063,
80f3,
8004,
0033,
807b,
8019,
80e4,
8012,
00f8,
0000,
0030,
8010,
0041,
8015,
8090,
8018,
80cf,
0053,
0042,
802e,
80b0,
8115,
00af,
8006,
0019,
008a,
0008,
8018,
0053,
007b,
805a,
810a,
802f,
8010,
80d9,
8055,
008f,
8036,
8018,
8030,
0064,
804f,
0111,
80f9,
803b,
0004,
0002,
007f,
8025,
8001,
0065,
007f,
0073,
0089,
0000,
008c,
8008,
00ae,
8048,
0057,
008c,
003b,
802c,
8043,
80c0,
805c,
0016,
8016,
8023,
0027,
8126,
0028,
00e7,
001e,
0081,
007a,
0031,
0085,
80a5,
002d,
804f,
802e,
8069,
001a,
803b,
8081,
0009,
804d,
80af,
0085,
8007,
0076,
0005,
003f,
8062,
80b4,
8067,
80ab,
80b6,
803b,
00e0,
803d,
8094,
0024,
006e,
004b,
0103,
80e8,
0046,
8004,
80bd,
8012,
002c,
80c0,
005a,
0009,
8012,
008d,
807c,
00b0,
00b1,
004f,
80a1,
009e,
0034,
804b,
006c,
80d1,
0012,
8073,
0003,
004b,
807b,
0035,
803c,
80c1,
008c,
8013,
00a4,
00e4,
0040,
007f,
8051,
0040,
8082,
809f,
000e,
8023,
0048,
8034,
804e,
0035,
0015,
0063,
0019,
0035,
802d,
8012,
803e,
8006,
802b,
0006,
8025,
003e,
0002,
8067,
0025,
0027,
803c,
000e,
8015,
801b,
0051,
002d,
0033,
8018,
0001,
0051,
0013,
801f,
0015,
0017,
802a,
8003,
8019,
8030,
002d,
0025,
003f,
003f,
8026,
0004,
001a,
0015,
0013,
802d,
002a,
8044,
002e,
0031,
000e,
8026,
000e,
8044,
0044,
0026,
806a,
0057,
002a,
8015,
8086,
805f,
80a8,
004a,
007a,
8068,
0066,
8057,
8050,
0013,
009c,
0089,
0009,
0059,
0036,
0091,
0047,
00bb,
001c,
0036,
008f,
805a,
0036,
80b5,
8015,
0059,
806a,
800c,
0042,
0016,
808a,
0076,
0045,
80ba,
00b1,
8062,
000c,
802b,
001f,
001a,
808c,
0069,
80a3,
000a,
8053,
8084,
006a,
8090,
8059,
8005,
80b5,
0064,
0033,
0007,
803c,
001e,
808c,
8045,
8058,
80ab,
804b,
801d,
0090,
8040,
00a3,
8030,
8012,
801b,
001d,
0067,
8009,
8084,
0018,
802f,
003d,
804f,
00da,
807f,
00b0,
8005,
806d,
00ae,
0071,
008e,
006f,
003a,
002a,
8006,
8035,
001d,
8055,
000f,
8035,
807f,
0021,
0071,
0005,
806b,
0089,
8059,
802b,
80a5,
0036,
0074,
809e,
0099,
807a,
0062,
002b,
801a,
0106,
009f,
8012,
8033,
8031,
0050,
0049,
0056,
0005,
0033,
0047,
8001,
008d,
809e,
8037,
800f,
801b,
000e,
0093,
001b,
0003,
00fc,
001b,
0014,
80db,
803d,
8041,
001e,
00e0,
0042,
008e,
8033,
0051,
8007,
001f,
0088,
80ee,
000c,
0088,
8038,
8040,
008e,
802e,
0057,
8074,
802a,
8098,
8071,
001b,
0095,
8036,
800f,
001f,
8146,
00eb,
80e7,
0071,
8017,
80eb,
00b5,
8054,
003c,
00a4,
8071,
0121,
011f,
0020,
0064,
8122,
002e,
0012,
8053,
8068,
001b,
0052,
0026,
800c,
8033,
800b,
806f,
0003,
0007,
803c,
8034,
8070,
002e,
00a9,
806d,
0008,
8047,
0011,
003f,
00b0,
00d1,
800f,
0021,
000a,
0075,
8018,
00e5,
8056,
0056,
0040,
0018,
006c,
8073,
0018,
0035,
001d,
8034,
0021,
0067,
0006,
801b,
0026,
0060,
001d,
8007,
00c8,
8094,
0061,
006e,
801f,
00ae,
807d,
003b,
8077,
8060,
0052,
00d9,
8002,
8027,
8074,
0059,
8013,
804f,
0081,
005d,
8021,
003a,
8049,
801b,
0040,
801c,
0063,
800a,
0039,
006e,
805d,
00d6,
004b,
0034,
8085,
8029,
8018,
808d,
0090,
0046,
0055,
00be,
801a,
8094,
8028,
00b7,
80cb,
0015,
004e,
8080,
004d,
806e,
804b,
8011,
8164,
8060,
8003,
80fc,
8059,
00df,
0052,
8087,
0011,
8142,
001e,
8050,
0022,
804b,
8069,
0043,
80f6,
007a,
0065,
8030,
00a7,
0009,
000b,
8022,
80e2,
8035,
808d,
8078,
80ab,
00af,
0093,
0027,
0002,
8023,
0077,
00fe,
001a,
8088,
002e,
004a,
8050,
0111,
00df,
007d,
805f,
002d,
80a2,
8099,
002a,
0026,
0061,
005b,
005e,
802c,
0056,
003e,
809c,
0039,
0076,
0017,
800c,
804a,
0016,
000f,
8106,
002c,
8053,
80e7,
0046,
0089,
003c,
0050,
0093,
80c3,
005c,
8060,
000c,
0000,
8077,
0023,
8011,
0091,
003c,
0023,
0089,
0065,
0026,
0048,
0007,
801a,
8063,
800b,
80da,
8000,
8015,
8003,
008b,
809c,
0073,
8015,
8035,
8021,
8002,
0091,
8046,
009b,
0083,
004a,
8033,
006c,
806a,
805d,
0070,
0096,
8003,
002e,
00c9,
808a,
0041,
0071,
80a2,
0041,
0009,
000d,
0021,
8125,
0069,
8049,
80b0,
0037,
805a,
8071,
8029,
00a3,
00d3,
0015,
8007,
80ba,
0082,
0014,
0032,
8040,
8017,
000b,
8045,
0015,
0019,
000a,
009c,
8035,
800f,
001a,
80f5,
0004,
808a,
806e,
005b,
0056,
003b,
8095,
800d,
004e,
005b,
0003,
8061,
000a,
00cb,
0029,
8075,
0082,
00cb,
0078,
808f,
0032,
8109,
800a,
0025,
8070,
00fc,
007a,
0062,
0053,
0014,
806e,
0064,
009f,
8002,
0052,
002c,
80fa,
805b,
004c,
80c0,
8021,
809c,
002d,
0004,
001e,
8003,
0047,
007e,
8068,
8028,
8074,
0053,
8028,
8034,
80af,
001f,
00b6,
004e,
8032,
802d,
805e,
8012,
004f,
80d9,
8067,
8081,
0013,
0080,
803c,
8006,
8045,
0092,
805b,
801c,
800c,
0023,
004a,
0024,
0064,
8019,
0039,
00d6,
006c,
805e,
8049,
8020,
0006,
8030,
0052,
8011,
001a,
008a,
800b,
805e,
803f,
001c,
002d,
0029,
000a,
0028,
80ca,
803c,
0000,
8057,
8023,
807c,
0059,
806a,
007e,
0068,
0059,
0013,
8024,
0000,
8055,
003e,
80a7,
805d,
001f,
8071,
0033,
003a,
003a,
0062,
8035,
006b,
803d,
8116,
8061,
0035,
802c,
800b,
804a,
006e,
005c,
8013,
8045,
003a,
007d,
8001,
8032,
000b,
0054,
801a,
801e,
0071,
0019,
800c,
003b,
8081,
003f,
802a,
0036,
0124,
0002,
00af,
804f,
008d,
008a,
004c,
003a,
008c,
002c,
000a,
8023,
803f,
0035,
80a6,
0005,
8029,
007c,
800c,
0047,
002b,
001f,
0099,
8047,
0061,
8003,
0000,
8034,
8030,
8033,
0024,
00cc,
8065,
8000,
0034,
0009,
0010,
8003,
802e,
8011,
0009,
0000,
0069,
801d,
000a,
000a,
0049,
8054,
8078,
003e,
0004,
0068,
0014,
0063,
802b,
006c,
006a,
00cb,
806c,
0016,
8074,
0010,
0053,
000b,
00e8,
800c,
0053,
801e,
0066,
002d,
0070,
0076,
8025,
004c,
807a,
8021,
0038,
003c,
809f,
0016,
8025,
0024,
000f,
00c6,
001c,
00a7,
0087,
8084,
8021,
8015,
8022,
8041,
8036,
805d,
0027,
00bc,
0012,
002b,
8021,
0029,
8043,
002b,
807d,
8036,
0054,
006d,
0050,
007e,
008d,
0015,
0066,
8016,
80d1,
0098,
8025,
0007,
8057,
0069,
8052,
8049,
0083,
012e,
0009,
000e,
0022,
8080,
800a,
0033,
00c5,
800c,
002a,
802a,
006e,
001f,
8019,
00f5,
8036,
000f,
001b,
8042,
804b,
003c,
001b,
803e,
8009,
002c,
0006,
008b,
8002,
005d,
0088,
8030,
001e,
802b,
004e,
802d,
0008,
8083,
0047,
0059,
0070,
00a7,
0093,
8038,
002b,
800a,
806e,
803d,
0000,
8030,
0035,
0064,
0083,
0032,
0099,
8079,
8159,
0040,
0097,
0027,
0010,
005f,
0092,
803d,
8060,
0095,
8051,
000b,
0020,
803a,
8001,
0012,
01a4,
802c,
0043,
0009,
0088,
8034,
8062,
0093,
8035,
0082,
004d,
800f,
0044,
0078,
0020,
0040,
8025,
0046,
00c4,
0002,
0017,
0032,
00af,
805b,
002a,
009a,
8043,
8048,
004c,
8079,
0013,
006b,
003f,
00ad,
804f,
8032,
0026,
0058,
804a,
801b,
0014,
009d,
0066,
0085,
00ce,
0055,
005b,
8046,
8119,
8006,
0036,
0037,
8055,
004e,
00a5,
8081,
001b,
0081,
8050,
0046,
8031,
001c,
8012,
0051,
0152,
0013,
8012,
005c,
0046,
803c,
8001,
0061,
80a9,
0034,
0044,
0005,
0027,
0042,
000f,
800e,
0084,
0099,
00c0,
803c,
803d,
0069,
00c3,
0040,
000e,
003b,
0013,
8035,
8010,
8041,
0066,
00a2,
005b,
009a,
8007,
001c,
002a,
0027,
8050,
0022,
8076,
005b,
00d5,
0001,
004b,
0085,
0040,
804d,
80f9,
003c,
8025,
0017,
8032,
00ae,
003a,
802f,
0062,
0115,
0059,
8000,
000e,
0009,
8000,
801b,
014a,
8023,
806e,
0004,
8024,
80be,
006c,
006c,
8036,
0058,
0037,
002b,
800b,
0087,
00ab,
0015,
0010,
003b,
0095,
800f,
8028,
0041,
0075,
8017,
8042,
0009,
803d,
0080,
006d,
803c,
0088,
00ad,
000a,
00a0,
0024,
8034,
0037,
003a,
8057,
803b,
0019,
00d1,
00a8,
8064,
0099,
0096,
0095,
800a,
80df,
8040,
8046,
011a,
8018,
007b,
000b,
8027,
8009,
00f3,
002e,
0014,
803c,
803e,
801b,
0024,
00da,
8028,
8039,
0018,
8044,
809f,
0075,
0031,
8043,
0050,
004c,
00ca,
0023,
003c,
0060,
804f,
0009,
006b,
008c,
802f,
80a4,
0029,
00bc,
0049,
0041,
0020,
0017,
0116,
003b,
0033,
00ad,
0071,
0025,
00e6,
003e,
0026,
00a4,
0038,
80e4,
8016,
8060,
0063,
00a0,
8114,
007d,
008f,
00a9,
001c,
0006,
003f,
801a,
0075,
0021,
0068,
003b,
805a,
800b,
00ae,
0017,
8003,
809e,
8009,
8085,
8001,
00e1,
801e,
0030,
0012,
004d,
8061,
0030,
0059,
804d,
002e,
0004,
00cb,
8050,
001b,
006f,
803e,
000c,
009b,
0091,
8025,
8088,
808f,
0073,
0061,
802e,
0084,
8071,
0103,
005f,
007e,
008f,
0083,
0018,
0008,
0012,
004d,
00a8,
007f,
80b9,
803b,
0061,
00c0,
007b,
80c0,
005e,
004f,
0067,
8016,
0069,
0024,
8044,
00d4,
800c,
0083,
0060,
8012,
0044,
007d,
0053,
0027,
0001,
803c,
801f,
000d,
008e,
000a,
8006,
8042,
806c,
0001,
0054,
801f,
804a,
8025,
0018,
00d3,
800b,
0004,
0050,
8090,
00b4,
0062,
00f7,
005f,
8019,
806c,
0013,
8000,
8082,
0020,
0010,
00af,
005d,
004d,
0051,
800a,
0031,
0084,
005e,
0064,
0055,
0006,
80a4,
8087,
0009,
00d7,
0018,
80e4,
001c,
0059,
006c,
8059,
00c7,
0040,
001c,
0024,
8010,
0017,
0035,
0026,
8020,
8012,
800d,
0014,
801c,
8053,
8055,
001c,
0070,
0017,
8025,
000c,
8050,
0007,
0032,
8004,
0016,
8034,
8017,
00d0,
8046,
0069,
002a,
0038,
800d,
00bb,
001b,
8006,
802d,
807d,
8010,
0052,
0025,
006a,
8010,
00cb,
0048,
000d,
0028,
0022,
803a,
0032,
001b,
0021,
0038,
003d,
811c,
0042,
0051,
0066,
000b,
8107,
0019,
0079,
0019,
807e,
004f,
0021,
0049,
0071,
0004,
003a,
804d,
8029,
000d,
8058,
00a7,
0027,
8024,
80f8,
801e,
8004,
800e,
0054,
802e,
007a,
8032,
0041,
004b,
802b,
8011,
8043,
005c,
00cc,
0017,
8049,
0027,
0022,
001a,
0083,
0024,
0007,
0028,
816f,
800b,
0026,
800b,
8020,
801f,
006f,
004d,
0036,
004d,
808a,
803e,
004d,
8006,
006d,
0032,
001b,
80af,
0098,
800b,
00f6,
8042,
80eb,
0017,
000a,
0087,
0008,
0039,
004c,
0034,
801b,
000d,
005d,
00b1,
803b,
800e,
8046,
8050,
0003,
802d,
8101,
0051,
8003,
0014,
8018,
8051,
0073,
804d,
0081,
800c,
002b,
0003,
800e,
802a,
00c7,
802e,
006a,
006d,
800f,
0036,
00c4,
000d,
8023,
0060,
811d,
001b,
003d,
8034,
8035,
0013,
0066,
8018,
8047,
804d,
8090,
0009,
003e,
001b,
0022,
0002,
8017,
8073,
002f,
004a,
0016,
802a,
8098,
803e,
0015,
8076,
800d,
0054,
002a,
001a,
800c,
8038,
8046,
001b,
8018,
804c,
8051,
006a,
002b,
8053,
80c9,
0010,
0059,
806e,
800f,
8092,
802e,
8022,
00a5,
8018,
8005,
0050,
80bb,
0021,
0035,
0086,
800c,
002a,
0019,
001c,
0052,
0008,
0036,
0050,
811a,
004c,
006c,
005e,
000c,
800d,
003a,
002c,
8105,
0000,
8097,
8046,
000c,
00b4,
0047,
8071,
0009,
807d,
007a,
80ae,
008f,
8022,
802e,
8002,
006f,
001b,
0076,
0064,
0048,
8019,
8021,
8096,
001d,
0060,
0082,
8006,
8021,
004f,
0047,
805a,
8115,
0030,
803e,
8083,
006a,
80de,
8069,
006b,
009e,
8052,
806a,
8021,
8015,
8034,
801f,
0093,
8042,
8069,
0003,
002e,
00e3,
8060,
00a1,
0014,
8093,
004e,
006d,
005a,
005c,
8072,
802c,
8066,
809f,
8001,
8077,
8090,
0096,
009b,
8008,
8067,
005c,
0039,
802b,
800a,
0079,
80e0,
006b,
8000,
80ae,
0049,
0074,
8016,
005e,
8040,
8091,
810b,
0015,
80cb,
8017,
0034,
8070,
0012,
00d5,
00eb,
80a9,
0023,
00b7,
80bd,
003f,
8162,
0052,
0013,
010b,
00af,
806b,
8020,
005b,
0007,
807f,
0112,
8105,
8036,
0000,
0098,
0097,
8089,
000a,
00c6,
0013,
80a3,
00c4,
807b,
000d,
0003,
80b4,
800a,
8039,
0071,
812f,
8044,
0052,
8030,
80b1,
8097,
802c,
0003,
0069,
8014,
8006,
8019,
00fb,
802b,
8075,
800b,
0079,
001a,
0098,
8040,
8076,
0057,
0062,
80d6,
8148,
0002,
8098,
003a,
00e4,
0124,
809a,
00eb,
0095,
8046,
804b,
80fd,
806b,
809c,
0119,
011c,
8010,
800e,
0068,
0093,
8063,
015e,
8140,
805f,
0005,
0085,
0128,
804b,
800c,
00c0,
0072,
80a5,
0084,
8032,
0038,
00d6,
8045,
0027,
8026,
0047,
8092,
001a,
00a1,
0013,
80d3,
8046,
8015,
801f,
8034,
8119,
001f,
00fc,
0046,
002a,
009f,
8043,
8030,
809c,
0043,
8084,
8002,
0041,
8031,
80d9,
8126,
00bb,
001f,
00c2,
002f,
00ee,
8047,
8014,
00bb,
8088,
8016,
8079,
0052,
001c,
00c8,
010a,
0076,
0006,
8005,
005e,
80a2,
0119,
80cd,
003a,
001c,
0048,
00f3,
809b,
005a,
0059,
005d,
0043,
00c3,
0076,
0017,
0021,
8018,
00a0,
80c6,
0025,
801a,
8099,
0019,
0045,
8044,
0012,
8105,
802a,
80b8,
80b3,
0012,
00b6,
8017,
8030,
8037,
0059,
8082,
809a,
8024,
0014,
0077,
00cb,
8079,
80ae,
806a,
0033,
8060,
805b,
008a,
8022,
003d,
801c,
000e,
0041,
8031,
003e,
00e5,
004a,
8033,
8002,
0008,
8046,
804d,
800c,
0083,
0063,
8071,
8044,
004f,
8020,
009f,
0023,
8061,
0087,
802a,
004b,
00d9,
8041,
0023,
0053,
00cc,
8008,
00a7,
0047,
00c4,
8037,
8097,
807c,
801e,
8033,
0022,
0035,
00d7,
0009,
0022,
00e6,
008c,
0024,
001b,
8053,
003e,
0075,
0020,
803c,
804e,
0063,
8006,
800c,
803c,
001b,
001d,
001f,
0007,
8013,
800d,
002a,
002c,
0018,
0016,
8005,
8053,
004d,
8012,
8010,
0015,
0006,
0002,
0001,
0013,
0039,
803f,
800c,
0036,
8065,
002c,
0009,
803c,
801b,
0019,
8008,
0058,
0069,
002d,
0032,
8010,
0003,
004b,
8016,
803d,
000e,
8030,
003d,
8064,
006a,
0012,
0004,
8028,
0026,
0025,
8003,
802a,
0005,
004e,
0031,
000b,
001b,
0032,
0025,
003e,
0050,
002c,
809f,
0078,
0080,
8024,
8088,
80eb,
8089,
8065,
001a,
0057,
0095,
8074,
0098,
802a,
004b,
008b,
806b,
00eb,
0138,
8084,
803e,
80c2,
8094,
801d,
80e3,
0028,
806d,
801b,
80d3,
00d8,
802f,
8053,
00ae,
80b0,
009e,
809b,
002e,
00bb,
80bf,
00bf,
8129,
00a0,
80d0,
8097,
00ba,
809e,
00bc,
80c3,
0010,
8052,
0109,
800a,
8063,
002a,
0022,
80de,
0016,
809f,
80c7,
80a8,
8012,
00f9,
00af,
005b,
0015,
00b2,
8016,
009f,
807b,
801f,
8036,
0017,
8051,
0013,
005c,
807c,
00c4,
804c,
8003,
8013,
0036,
8025,
008e,
0009,
8016,
8009,
800d,
8091,
80c4,
8031,
806a,
8069,
8033,
006f,
0069,
8116,
801a,
80c5,
004d,
0003,
0026,
0042,
8072,
0031,
000e,
0039,
00f7,
0012,
00e2,
0164,
00bc,
8044,
003d,
805c,
0015,
005a,
807f,
8038,
0094,
8067,
00eb,
8045,
80de,
000f,
8074,
004d,
8081,
00e2,
0002,
0112,
0032,
804d,
80bb,
803c,
802a,
0020,
00f5,
0110,
0015,
006b,
0021,
8015,
80dc,
8004,
80b8,
0011,
00cd,
8040,
001f,
0007,
001c,
8037,
80b0,
0022,
8028,
8041,
804e,
008b,
001d,
806a,
0024,
80e6,
0091,
8046,
005a,
802c,
8018,
00a6,
80b6,
0009,
006d,
0068,
00e4,
00f9,
0051,
8014,
80da,
003f,
8019,
809d,
803a,
0091,
006f,
0077,
8045,
0002,
0028,
0016,
801e,
803d,
803a,
000a,
0034,
0069,
0065,
808f,
80af,
806c,
0006,
0057,
011d,
00c0,
803a,
00e1,
004a,
8017,
8047,
803c,
80b8,
0042,
008f,
0052,
0087,
800e,
8050,
0031,
8074,
801a,
801f,
8090,
8060,
0072,
00ba,
008e,
0011,
817e,
00b2,
80a2,
0083,
000b,
8031,
00e8,
804c,
0002,
0051,
8003,
0059,
0015,
8050,
8024,
80c5,
0004,
80b0,
803d,
001a,
0046,
007d,
0084,
80d5,
801f,
00a4,
0023,
8013,
8053,
806b,
003d,
001d,
00dc,
0064,
0042,
807c,
8076,
8096,
808b,
0049,
0031,
803b,
006b,
001f,
8000,
8044,
0038,
811d,
800f,
0081,
804b,
001a,
0042,
8078,
8010,
80ad,
000e,
808d,
80ef,
803e,
00c7,
0021,
005a,
8031,
8137,
8015,
8050,
00a0,
8074,
805c,
000d,
807a,
003e,
0038,
002e,
00e0,
006e,
0002,
0024,
808a,
8002,
809d,
8051,
8057,
0012,
00af,
0049,
8029,
0005,
00b8,
004c,
0015,
8027,
0074,
005b,
8009,
004a,
8069,
003e,
0061,
003f,
8053,
004b,
0044,
00b1,
8047,
0056,
003e,
8013,
0001,
006b,
811c,
8026,
003d,
80b7,
0000,
80bf,
800a,
8079,
807b,
8017,
80c6,
80c0,
8059,
00cc,
00d3,
0042,
803d,
8063,
0066,
0008,
0011,
807a,
8023,
0031,
8011,
005a,
800d,
8012,
0051,
00ae,
0089,
0002,
8016,
8060,
8032,
801c,
8022,
8008,
00c2,
80ac,
803e,
0017,
005a,
0037,
8015,
0013,
006c,
007b,
805d,
0047,
009f,
0065,
0006,
8038,
803d,
0011,
0022,
009c,
003a,
002e,
001a,
8024,
8033,
0029,
8043,
005b,
0070,
8046,
0036,
80ba,
0080,
801e,
809d,
8043,
8069,
805d,
000d,
006c,
008f,
8083,
0092,
8043,
0020,
8086,
00b9,
807b,
803b,
003d,
802d,
0075,
8021,
00b0,
00d5,
8051,
0018,
8002,
80cb,
8017,
809b,
0029,
0020,
80be,
0018,
0061,
003c,
804a,
000c,
0000,
8017,
0061,
0054,
0086,
803b,
0092,
007a,
00df,
8033,
8007,
8071,
801c,
8030,
004a,
0007,
0026,
0086,
8039,
8021,
00f2,
0008,
0062,
0034,
8033,
0008,
8050,
8042,
8065,
813e,
0014,
0001,
8049,
001b,
00c0,
000d,
8020,
0059,
8075,
003b,
007f,
0024,
805d,
8072,
8001,
8039,
00a4,
0078,
000f,
00d4,
0053,
00a6,
8053,
807a,
8069,
00a3,
0061,
8069,
8026,
0096,
002c,
0123,
8005,
801d,
801c,
801b,
0037,
0071,
002c,
803b,
000e,
0028,
00b4,
0002,
8051,
808b,
0001,
0060,
800f,
008b,
002b,
00b3,
801a,
8071,
003c,
8013,
005d,
006b,
8034,
002c,
8031,
8053,
8024,
80c3,
002e,
8021,
8015,
000a,
009c,
0023,
0069,
0082,
809d,
0019,
8024,
0051,
806c,
8012,
802f,
804d,
0049,
000a,
000d,
0058,
8029,
005e,
8042,
8026,
8056,
0024,
801d,
8041,
8059,
0071,
007d,
003a,
0026,
002a,
0083,
0000,
0031,
0071,
0075,
8038,
8058,
0033,
0035,
001e,
007c,
0020,
800c,
008b,
8000,
00cc,
8031,
006d,
8036,
0082,
007f,
002d,
0049,
0015,
001e,
002f,
002c,
800e,
8057,
806d,
0012,
805d,
0007,
8016,
005b,
004c,
803a,
0039,
8052,
0027,
8018,
0013,
80b6,
8017,
0023,
0067,
00de,
004c,
8026,
0016,
8011,
8005,
0019,
80b8,
802c,
8033,
8003,
8001,
8055,
003c,
0009,
800d,
8081,
800e,
0061,
8040,
8029,
010b,
006a,
802f,
8062,
0062,
001f,
0071,
0037,
8046,
8070,
006f,
8034,
0085,
0022,
004f,
8090,
006e,
00b0,
005a,
00b4,
0033,
0014,
8003,
8017,
0044,
0004,
806e,
805a,
8044,
8011,
009a,
004a,
002e,
000b,
00e7,
8037,
002b,
8020,
0004,
80be,
8046,
804c,
00a4,
006f,
0038,
8011,
00a2,
0074,
8004,
005b,
8093,
8000,
803a,
007b,
001a,
8031,
0036,
0021,
00c4,
8047,
8053,
003a,
000f,
8016,
00a0,
0043,
8007,
804b,
0061,
00a8,
0079,
00b0,
802e,
0027,
0010,
800f,
0099,
8016,
002d,
0024,
0023,
0032,
8047,
00af,
0021,
8006,
0000,
0011,
004a,
0037,
0037,
8053,
8017,
0044,
003a,
0053,
0021,
001d,
00b9,
802c,
002d,
001b,
000b,
8096,
001e,
8067,
0072,
0066,
0057,
8023,
006b,
0076,
002e,
0050,
80a9,
800b,
0054,
0032,
000d,
0018,
004c,
0020,
0084,
8057,
810b,
007b,
0033,
0020,
00b0,
002f,
0030,
806d,
0056,
0089,
8036,
0069,
001b,
0077,
800f,
0001,
0115,
804e,
0038,
006d,
0020,
803b,
8059,
0088,
8018,
800a,
0023,
0004,
801b,
0040,
0057,
8093,
0011,
0086,
8014,
8074,
8074,
0073,
00b3,
8051,
8000,
0037,
802a,
808c,
0035,
80b0,
0066,
00b9,
002d,
8009,
8021,
001f,
003f,
003e,
807e,
8028,
800e,
0038,
000f,
0071,
0058,
007d,
000d,
0046,
8103,
0028,
0018,
001a,
00f2,
0022,
0025,
8088,
800d,
00dd,
0046,
8015,
8042,
004d,
805d,
8008,
0197,
8005,
0033,
0010,
0049,
80c1,
8000,
005c,
8031,
8013,
0054,
0004,
8054,
0099,
00ac,
0017,
0033,
00c7,
009d,
0010,
8047,
0096,
00e0,
0099,
000b,
00b6,
801f,
803a,
00a4,
80a3,
00ad,
00db,
0025,
800a,
003c,
00be,
003f,
003a,
8079,
8000,
003a,
00cf,
0051,
0022,
0016,
005d,
00db,
0045,
80e8,
0033,
0066,
0024,
00ae,
004d,
009a,
809a,
801a,
00da,
0003,
0017,
806b,
007b,
80fb,
8056,
016a,
80aa,
0000,
006a,
8036,
80ec,
0058,
0064,
8027,
8006,
007b,
0049,
802f,
00c6,
004b,
0016,
0058,
00d5,
00aa,
805a,
8022,
0122,
009d,
0058,
802d,
0071,
0025,
00ab,
00d5,
0052,
0103,
00b7,
00a1,
005e,
801b,
0089,
0065,
005c,
8068,
8034,
0003,
00a3,
0027,
8096,
005c,
00af,
00a4,
004c,
8086,
0076,
008f,
0068,
0080,
008b,
007b,
8002,
0008,
0115,
0099,
8056,
8040,
0048,
80bc,
8028,
0140,
803e,
0026,
0039,
0007,
80f3,
801c,
0042,
8030,
8023,
008c,
0027,
002e,
00c1,
0058,
8023,
0066,
00ae,
00d7,
809e,
80b4,
0059,
008f,
0046,
8069,
007a,
0037,
0149,
005c,
0045,
00b9,
007f,
0042,
0058,
807e,
0022,
007f,
0095,
806c,
8040,
00d9,
0091,
0077,
8098,
0055,
0067,
008e,
8043,
800f,
0017,
0045,
0086,
0002,
0015,
0079,
80bb,
8042,
0111,
0059,
807e,
805c,
8006,
80a9,
005d,
0135,
8030,
0059,
000e,
001c,
8078,
0012,
0031,
8011,
000a,
800d,
0045,
8036,
002e,
8023,
0030,
0086,
00b8,
008c,
0095,
8106,
0027,
00d3,
800d,
8029,
00bd,
0004,
00dd,
00d7,
0051,
007d,
00b8,
0064,
0040,
0033,
00b5,
0005,
0044,
8020,
8046,
009b,
00c2,
8030,
80ce,
006f,
002d,
0089,
8027,
00ec,
0068,
0033,
0088,
803a,
009e,
00ba,
0008,
001a,
00d5,
005b,
8035,
8060,
8045,
8027,
0067,
00d5,
0008,
0011,
8050,
8004,
002a,
005e,
8068,
005f,
8061,
0083,
00ba,
8030,
8011,
0000,
8007,
0058,
007a,
0053,
00eb,
001a,
8094,
8019,
0015,
8004,
00a9,
0003,
010c,
0081,
007f,
8047,
0068,
0022,
005f,
006a,
0032,
0082,
003c,
802b,
806e,
0053,
0098,
8027,
80b6,
00cf,
802f,
0069,
0050,
0059,
0046,
008a,
0051,
8026,
005a,
8021,
0017,
8022,
0043,
006f,
0026,
8038,
80bc,
8036,
0096,
0005,
800d,
000a,
0042,
8006,
00a0,
8000,
8002,
0058,
8052,
0051,
00ca,
800d,
8006,
004c,
004e,
004d,
0071,
0037,
800a,
004f,
8095,
0073,
8002,
00ad,
0082,
806e,
00f8,
0059,
801c,
0065,
800d,
8006,
0042,
0067,
0098,
005e,
8018,
802d,
0029,
0015,
0097,
8075,
80e7,
0054,
002f,
800b,
0007,
00d9,
805b,
0040,
801d,
0097,
8012,
800c,
008d,
0005,
0066,
0031,
806d,
800d,
80f4,
801c,
0059,
002b,
0032,
0016,
8022,
8026,
0072,
0007,
8051,
005b,
804d,
007f,
00a3,
0027,
8069,
8034,
0040,
0092,
00da,
0010,
008c,
0034,
813e,
005f,
001c,
0027,
8026,
8019,
0035,
0061,
8016,
800c,
8060,
0046,
007a,
0072,
00ac,
0075,
003c,
0001,
8015,
0088,
0032,
8128,
80c8,
0061,
0001,
0041,
0003,
8012,
0085,
003c,
8009,
005f,
007f,
004a,
803d,
0031,
806a,
8083,
005a,
8018,
80e3,
8039,
006a,
801a,
0010,
8043,
0014,
8073,
0087,
0024,
0003,
0092,
806d,
8010,
0064,
000d,
802c,
801c,
8045,
8017,
00b5,
8025,
002c,
003c,
8109,
8026,
001d,
0052,
001c,
8029,
0050,
0088,
8068,
8040,
800b,
0036,
0060,
007d,
003f,
0018,
0035,
003b,
0018,
0068,
801d,
8007,
80c9,
0018,
0068,
803a,
8022,
8055,
0039,
8016,
0004,
0063,
008d,
804e,
0039,
801c,
8062,
801b,
006a,
8023,
8140,
0020,
002a,
8037,
0084,
807f,
8071,
0070,
013c,
005d,
0033,
0056,
803a,
8015,
800b,
00ab,
802f,
800a,
0031,
0024,
00ec,
8021,
0016,
0043,
814b,
0002,
0033,
00c9,
000e,
003f,
8051,
0073,
80b7,
8049,
808d,
0063,
0076,
00bd,
0074,
0035,
0055,
8021,
801b,
8044,
004b,
8089,
802a,
804a,
8015,
0028,
8014,
8094,
0004,
8031,
8021,
8003,
003c,
8042,
0066,
8004,
0005,
0004,
8030,
0033,
8120,
8014,
0041,
0012,
001c,
8080,
8068,
004d,
00d8,
0005,
8023,
0038,
80ac,
0017,
002e,
0046,
8085,
801f,
001b,
005e,
0097,
0004,
0071,
0064,
80e0,
001e,
8017,
0092,
0077,
000a,
803f,
0001,
80fe,
001e,
80aa,
0035,
00ae,
00f2,
0061,
0042,
003c,
004c,
8095,
0042,
004d,
80e5,
8031,
0031,
8021,
8002,
8024,
8052,
800b,
005a,
803b,
806d,
0091,
80d2,
8025,
0039,
0030,
00ee,
002d,
009b,
8131,
0043,
008e,
811a,
8004,
8194,
814f,
8083,
007f,
00a0,
80af,
80bb,
0077,
007e,
8005,
0109,
816e,
80cc,
0008,
014f,
00ca,
0007,
0141,
00b3,
80bf,
805a,
0064,
0043,
00cb,
8034,
80b8,
013e,
819b,
800c,
8097,
803c,
008a,
0007,
8010,
8064,
804a,
0038,
8047,
8099,
00fe,
8053,
0086,
800c,
807e,
0076,
804e,
8056,
00c5,
807c,
801f,
00f3,
007d,
80e9,
8080,
00a9,
807b,
0074,
011a,
00c3,
80b9,
004b,
00d6,
80d7,
001f,
8157,
80a2,
80ec,
00e8,
015f,
8062,
8096,
00a6,
00c2,
80b2,
0139,
8238,
80e3,
004e,
010f,
0108,
8042,
0051,
00dd,
805f,
8072,
0069,
8042,
005b,
8007,
8043,
004d,
80d8,
0083,
0009,
8044,
0033,
0020,
805e,
8071,
0014,
0068,
8027,
80b7,
0084,
00cd,
00b1,
8005,
8011,
00e1,
8011,
80b5,
0091,
80ac,
0043,
8044,
0106,
8013,
8037,
006f,
0008,
0056,
007a,
0171,
805e,
007e,
00e3,
80b4,
0096,
8092,
0008,
8023,
0133,
0149,
0056,
8017,
002f,
0013,
804f,
011e,
811d,
80c0,
8033,
00c9,
0136,
803a,
0098,
0103,
8038,
8008,
002b,
0005,
801d,
0060,
80d9,
0102,
8046,
801c,
0016,
000d,
00aa,
000a,
810e,
8075,
805e,
0019,
805c,
80a6,
8005,
0096,
00ac,
0000,
0026,
0011,
8058,
803a,
0093,
800d,
0013,
0041,
8052,
8086,
805c,
004c,
8056,
0056,
0061,
001b,
8008,
0042,
0066,
0028,
805c,
002b,
004c,
8016,
8017,
8039,
0093,
8013,
8093,
00a0,
003f,
00d6,
809a,
0030,
0010,
8052,
00d9,
8048,
8067,
004c,
8037,
005b,
00fa,
0009,
00fa,
0002,
00dc,
808a,
009e,
0064,
0010,
80d2,
80c2,
806f,
809c,
0029,
004c,
800c,
0075,
007a,
0009,
009d,
0018,
003f,
0095,
8006,
0025,
006b,
8058,
8065,
0013,
0048,
000d,
8022,
002a,
800e,
0020,
0008,
8015,
0035,
0010,
8036,
000a,
800b,
8054,
0033,
0007,
001c,
002f,
802e,
8018,
0006,
0015,
0059,
0037,
0014,
0016,
0034,
000e,
002a,
000a,
801c,
0024,
0007,
8020,
801a,
8025,
0035,
0017,
800c,
0014,
8023,
800a,
8013,
800f,
0033,
0042,
0011,
0000,
0021,
003c,
0028,
800e,
8079,
0036,
0029,
8094,
006a,
805b,
8032,
80a6,
0043,
801a,
800d,
0009,
0095,
007a,
8081,
00b0,
001b,
00ca,
803d,
8021,
80dd,
0034,
8010,
0002,
000f,
80a0,
008b,
80a7,
0120,
00f1,
804a,
007f,
00f6,
8060,
807b,
809d,
80bb,
806a,
8090,
8004,
80b2,
004a,
8067,
00a4,
805c,
80d1,
0092,
809d,
0068,
0032,
803e,
00b7,
805d,
00fa,
8078,
00ed,
0056,
8054,
0087,
8008,
0050,
805e,
007d,
8062,
00bd,
8036,
809b,
0098,
0090,
809d,
00b9,
80e4,
8082,
806d,
807f,
0083,
0055,
00be,
003b,
007e,
8024,
0003,
8083,
0059,
8064,
8031,
00de,
005f,
804b,
0041,
800e,
800a,
808a,
008d,
8063,
0064,
004d,
001d,
804a,
803a,
0089,
8023,
802a,
0026,
8072,
80b5,
8024,
0068,
0104,
80f5,
8026,
80b7,
0047,
0003,
002d,
0015,
8039,
006d,
003b,
801a,
00b6,
805d,
00ed,
00c3,
801f,
8024,
8067,
8004,
8061,
803f,
002b,
001d,
0057,
005e,
0059,
8099,
0068,
8027,
807e,
8004,
00b4,
0066,
004f,
0087,
8036,
009a,
80ad,
8119,
8080,
004b,
005a,
00fe,
001f,
8005,
0067,
004a,
80a0,
0050,
80a6,
0052,
00c3,
8086,
8021,
0004,
8021,
800f,
811c,
0052,
80a9,
80ae,
0023,
00e5,
8040,
0039,
80b7,
810c,
007b,
802b,
0022,
806a,
8001,
00c8,
80b9,
0000,
00a3,
0065,
00c0,
010f,
00fb,
0003,
80b9,
804f,
0034,
804b,
80a5,
003d,
0119,
8097,
8060,
8094,
803a,
8021,
8016,
0043,
0011,
000d,
002c,
004f,
00b2,
0005,
8100,
804d,
801a,
005d,
0106,
011e,
8087,
007a,
0085,
0043,
8059,
001d,
80fd,
005d,
006c,
8058,
0004,
0037,
8049,
0007,
80be,
0055,
803e,
8089,
8087,
0093,
0071,
00ad,
806d,
8152,
0036,
8095,
008b,
80be,
8039,
004e,
80ed,
002a,
00a1,
0005,
0072,
0060,
0090,
804a,
818d,
8018,
803d,
8093,
801f,
800b,
00e9,
0026,
809c,
8002,
005a,
0046,
8037,
8034,
007c,
0053,
808f,
8079,
00ab,
003a,
000a,
0009,
80df,
001a,
0056,
006b,
8042,
8030,
000b,
004a,
80a7,
002c,
8064,
001e,
8041,
8048,
0087,
802c,
8005,
0033,
8063,
8024,
0011,
80c0,
000c,
001d,
0038,
0033,
0061,
8080,
009e,
8016,
0008,
0034,
000f,
0005,
8065,
8000,
0000,
006a,
002d,
0020,
003b,
003c,
808a,
802c,
80b8,
006b,
0044,
80c4,
0023,
005b,
0012,
805e,
0094,
800f,
0000,
009f,
0023,
0078,
0024,
000d,
006d,
003c,
805e,
802c,
80e6,
0027,
0027,
0079,
802a,
006e,
008e,
0010,
8078,
00c6,
80b1,
0040,
8011,
0010,
803f,
8058,
0016,
803a,
8049,
8018,
8083,
803e,
000e,
0094,
0050,
8024,
8031,
803c,
007e,
0006,
8024,
0024,
802a,
00ae,
8049,
0092,
0044,
003c,
0078,
0053,
0070,
8059,
80e6,
804f,
8041,
0005,
0020,
8040,
0053,
8003,
0040,
804e,
8017,
8021,
802a,
0009,
012f,
0075,
0014,
805c,
0072,
00ff,
8002,
800b,
8037,
801c,
003e,
0044,
002d,
0009,
0037,
8096,
0021,
00a9,
800e,
0040,
005b,
0028,
8051,
8010,
8004,
0019,
805a,
8035,
8067,
806a,
0011,
002d,
8009,
003e,
001b,
8044,
0064,
801a,
801d,
8024,
8017,
8016,
0044,
005a,
00ad,
004b,
0060,
0012,
001f,
0022,
8066,
8094,
8075,
002d,
8002,
80ec,
0052,
8003,
004f,
8079,
005e,
001d,
800a,
0004,
005b,
0099,
800d,
001a,
0086,
0068,
006e,
0000,
803e,
8018,
004e,
0093,
0011,
8048,
007a,
8004,
0044,
0047,
8038,
0051,
0037,
0004,
0027,
8025,
001d,
8003,
80c8,
8016,
8042,
802c,
000a,
0073,
008d,
80a7,
8017,
802e,
0004,
0004,
005a,
804e,
801d,
005d,
0023,
003e,
801d,
0065,
0076,
801f,
8002,
8023,
80a4,
8056,
803e,
003c,
002a,
8072,
0062,
800d,
007b,
8039,
00ac,
002d,
804f,
0010,
0092,
0054,
8026,
807c,
0026,
0051,
8032,
0006,
8085,
0059,
8024,
0027,
8002,
0021,
008b,
0040,
001b,
0046,
0096,
0073,
0021,
002a,
0018,
803d,
8040,
8083,
807f,
8051,
004a,
8012,
0062,
002b,
0012,
0004,
0084,
8062,
002f,
0003,
003a,
805c,
8009,
0072,
0028,
00a2,
800e,
006d,
0072,
8016,
8008,
0014,
8062,
801b,
8006,
801f,
0040,
80be,
0075,
0024,
0034,
8024,
002a,
0041,
0005,
8020,
00a8,
000f,
8051,
8066,
0026,
002e,
0012,
0057,
8033,
800d,
0013,
0025,
000b,
801b,
0076,
0024,
000d,
002d,
00bf,
00a5,
800d,
0011,
0087,
8020,
0032,
0001,
8047,
0044,
804d,
8049,
002c,
0038,
005b,
0013,
0062,
800e,
8059,
0042,
001a,
8034,
8030,
8044,
0053,
800e,
002c,
0026,
0020,
00a9,
003f,
006d,
80aa,
0014,
8096,
004e,
8004,
8088,
0042,
0073,
0006,
8022,
800e,
0004,
0009,
0018,
00e2,
004d,
8033,
80db,
8030,
0048,
006a,
0045,
8018,
804b,
000c,
8030,
0057,
8013,
0026,
0008,
0066,
009a,
0060,
00b9,
003c,
001b,
003a,
8031,
005c,
000d,
0007,
8017,
0014,
8046,
006d,
0079,
0047,
8081,
003b,
0075,
0055,
0012,
0006,
80ee,
803b,
804e,
00b3,
00be,
0020,
00a9,
004b,
0064,
0013,
0020,
80bf,
802f,
8047,
0032,
0023,
8086,
0015,
8074,
006f,
800f,
80f4,
0035,
0066,
800c,
0109,
0049,
0034,
80f5,
806f,
00eb,
0085,
00bd,
0054,
0031,
8041,
008a,
0024,
0077,
001f,
0089,
0066,
006b,
0000,
0060,
8029,
802b,
8000,
0077,
0051,
0028,
0003,
803a,
004b,
00bb,
0062,
002d,
000f,
0023,
0042,
004b,
005e,
0027,
8030,
80e4,
0070,
8134,
00b8,
0056,
0064,
0094,
8007,
0047,
0020,
000d,
8087,
003c,
8016,
009b,
007e,
0004,
8012,
8002,
007a,
8057,
812d,
0053,
800b,
0028,
0130,
0037,
0099,
808f,
804f,
0021,
00a0,
0088,
0043,
007f,
8023,
0050,
0065,
8044,
8014,
0066,
00a7,
0054,
8080,
00aa,
0035,
002a,
0035,
8023,
0018,
0055,
006c,
8035,
805b,
0116,
0047,
8013,
0023,
0064,
008b,
003f,
009d,
0054,
8038,
8067,
00ae,
80b4,
003f,
0062,
006a,
0002,
8039,
0047,
0008,
005a,
80bf,
0029,
000d,
000f,
006f,
006c,
0063,
0015,
0058,
000b,
814e,
0016,
007d,
0004,
00e1,
004e,
0034,
0023,
8085,
0018,
005f,
803c,
006f,
010f,
807e,
00a4,
00f0,
8064,
8039,
005f,
008e,
804b,
80bb,
005d,
0034,
803c,
0074,
8038,
803e,
0072,
004e,
005c,
8033,
00a6,
00df,
000e,
8038,
00fe,
00ea,
0045,
007a,
0012,
0064,
0035,
00b1,
804c,
0068,
00d4,
003d,
803f,
800a,
001a,
0042,
0066,
006c,
003f,
0032,
002e,
0067,
802d,
0054,
0090,
00c9,
0012,
80e4,
8025,
007b,
0062,
00a5,
8028,
006d,
0022,
8069,
00b8,
8004,
805c,
005e,
009c,
802d,
0040,
009c,
000d,
005a,
0094,
0076,
000f,
80cc,
007a,
0039,
800c,
009b,
8034,
803d,
00c1,
004e,
804d,
8000,
000e,
00d3,
006b,
806e,
0082,
004c,
800b,
0045,
007c,
0040,
00c0,
0059,
009f,
005f,
00bb,
8012,
0022,
8024,
002c,
009d,
0097,
0042,
004f,
005e,
005f,
005c,
000f,
0089,
0057,
0043,
0080,
8029,
8012,
0093,
0047,
0064,
800d,
003a,
0006,
001b,
0049,
005b,
808d,
801c,
003e,
8043,
000d,
007b,
8007,
0036,
00af,
004d,
8001,
803a,
000b,
0037,
804d,
008d,
002f,
803c,
003f,
8012,
002e,
002e,
802b,
0032,
001d,
8017,
012c,
0096,
8012,
0025,
0081,
005d,
00aa,
005b,
00fc,
8002,
00b2,
8016,
005f,
8011,
0061,
002f,
800c,
0055,
0024,
00bb,
0044,
0002,
80a5,
006d,
8003,
0023,
8023,
006d,
0067,
009f,
007c,
0087,
801f,
0019,
0050,
80a7,
009f,
009c,
809c,
8004,
8055,
8045,
005c,
0081,
8019,
001a,
009d,
000e,
8073,
808e,
002f,
004e,
0020,
004f,
0066,
0008,
006a,
003d,
003d,
000d,
8006,
0032,
002c,
8068,
009e,
0072,
804f,
000f,
0076,
801f,
0111,
004a,
0093,
0032,
004b,
801a,
0024,
8069,
00c6,
007b,
0089,
0033,
802b,
005b,
005d,
8075,
80ab,
005c,
003c,
0015,
801f,
00fb,
0028,
00b4,
0096,
8005,
8007,
8048,
0033,
804c,
00f6,
006a,
8086,
8085,
8068,
8016,
003a,
0047,
003b,
0059,
0040,
8023,
8008,
0029,
8021,
800b,
804e,
000d,
0084,
0010,
8017,
0046,
0015,
002a,
8035,
005c,
0064,
0004,
000e,
8025,
8026,
0028,
00d1,
005f,
00f6,
0094,
00b6,
800e,
0074,
8015,
0047,
000d,
00d6,
0018,
0003,
009e,
8002,
0067,
005b,
8071,
8107,
00a6,
004f,
005a,
0046,
0045,
0096,
009f,
0026,
8064,
001a,
002d,
0037,
0033,
004b,
00d5,
807d,
004f,
80e9,
8054,
0059,
000b,
0006,
801b,
0038,
0006,
0069,
802d,
8049,
0095,
8017,
003a,
00bc,
0022,
0009,
004d,
801e,
008b,
8072,
0013,
00b5,
8053,
80bf,
009b,
8048,
0056,
0084,
001e,
00c8,
00b5,
0050,
0053,
0026,
801f,
002e,
003d,
005f,
0008,
0062,
005e,
8024,
005c,
001b,
8029,
807e,
0064,
0027,
801b,
001a,
006b,
00b2,
0060,
0060,
0005,
0000,
0043,
800a,
8054,
0023,
0006,
8068,
0054,
806c,
001f,
0054,
0000,
8052,
005e,
801b,
000f,
009f,
800d,
802a,
0024,
8086,
0053,
00ad,
800a,
8074,
0059,
0014,
0018,
8007,
004f,
001c,
8000,
80f4,
001e,
802c,
0000,
0074,
002d,
00e1,
00c2,
0013,
8026,
8066,
801a,
0083,
0018,
003e,
006f,
002b,
0049,
800c,
0039,
801b,
806c,
80cc,
009d,
0015,
001c,
006d,
8046,
003c,
005b,
001b,
0013,
004e,
0067,
0058,
8045,
802e,
0011,
0028,
0009,
80b8,
0020,
0037,
0055,
0034,
0025,
0005,
0025,
0015,
803f,
8012,
0047,
8036,
0031,
00fa,
800e,
0000,
002b,
8027,
0005,
000a,
0050,
0030,
0018,
81e0,
8002,
8063,
8012,
004c,
000a,
00c3,
00b5,
8070,
0024,
8027,
0049,
0079,
0038,
0029,
001e,
0012,
005b,
0030,
0040,
002c,
807b,
8045,
0095,
006c,
803c,
0048,
810b,
0023,
0023,
8064,
8080,
0027,
807a,
8047,
800e,
8068,
8014,
801e,
00b4,
812d,
0081,
0050,
001b,
000b,
8088,
0051,
8016,
0105,
005b,
0017,
0023,
8041,
0051,
0075,
0069,
8052,
0011,
0020,
002e,
0073,
001c,
800d,
00a8,
818b,
8069,
0011,
0007,
8007,
0028,
0031,
00b9,
80e9,
8030,
80c0,
8077,
0020,
0047,
0014,
0016,
0047,
0080,
0022,
0019,
000a,
8019,
0003,
003b,
803e,
8061,
800e,
8075,
800f,
0038,
003c,
8041,
0002,
8000,
80aa,
8001,
8008,
0064,
0035,
00a1,
8095,
8024,
009e,
8027,
803d,
805b,
804b,
0009,
00c1,
800c,
0036,
0046,
805e,
001d,
0004,
0047,
8068,
803b,
8015,
00f6,
0057,
0017,
009a,
004b,
815d,
0022,
8009,
0069,
003e,
805b,
009b,
0046,
80fa,
803e,
80ed,
800f,
0089,
0024,
8051,
005e,
8038,
004a,
8069,
0023,
000d,
8009,
001d,
8030,
0083,
0028,
803c,
80b8,
0007,
0033,
0041,
805f,
0063,
808f,
8060,
0002,
800b,
012d,
008b,
0117,
8126,
8026,
00ef,
8127,
803d,
80a0,
8158,
8080,
006a,
00b3,
8113,
8031,
8058,
0042,
80b6,
013f,
816d,
8083,
0012,
0100,
00cf,
8037,
008e,
00d2,
811b,
000e,
0039,
003d,
00d1,
806e,
8077,
0090,
81e5,
00a6,
8072,
8051,
0043,
0019,
003f,
0038,
000b,
005c,
8082,
8094,
00da,
8043,
0074,
801e,
80ba,
00e1,
8027,
8122,
0093,
8056,
0067,
003c,
011f,
8021,
8038,
00d2,
008f,
0063,
0079,
0187,
80f7,
004f,
0100,
810d,
00a6,
8114,
8121,
8124,
0097,
015e,
80a3,
808c,
0037,
007f,
80b7,
0195,
81f2,
8066,
0009,
0183,
00c2,
8027,
00ca,
00e4,
80af,
8046,
00ff,
8030,
0017,
005b,
80e5,
0124,
81b0,
0002,
8015,
0014,
010c,
00b3,
8070,
802a,
80b5,
0000,
80a1,
001f,
0074,
00f1,
8023,
8031,
005d,
0075,
001c,
81b6,
00c9,
8066,
006e,
80b1,
00ed,
0064,
0020,
001e,
0001,
0053,
0001,
00d3,
80c9,
00ed,
010a,
80cd,
00a2,
80aa,
8078,
8072,
00f4,
0171,
0005,
804f,
000d,
0025,
0062,
0110,
8194,
0010,
8019,
00c8,
006b,
800c,
0017,
0078,
8002,
0043,
0030,
003d,
80af,
0098,
80f7,
00a1,
8016,
80ad,
801e,
0020,
012f,
003f,
80a7,
0001,
0005,
8087,
804c,
808b,
0017,
801a,
0036,
0060,
0080,
802c,
0000,
8038,
0057,
8094,
0043,
803b,
804e,
0003,
80d0,
8040,
0048,
005b,
0033,
00b8,
8005,
8064,
0087,
8049,
8046,
8057,
007a,
806c,
0033,
007c,
007a,
8000,
80a0,
0071,
8055,
000d,
8022,
0052,
0000,
006c,
004d,
803b,
001f,
8032,
8053,
006c,
009d,
001d,
0085,
0026,
800a,
00d1,
8098,
005a,
0007,
8035,
800c,
000f,
8060,
002f,
80b1,
0004,
80a5,
8004,
008c,
006d,
8063,
000e,
806d,
0080,
80b7,
8046,
0003,
00ca,
006c,
001d,
8033,
0011,
0019,
800e,
0017,
002f,
0019,
8036,
001e,
8003,
8013,
0002,
8028,
0018,
0043,
0014,
0052,
0053,
003b,
8009,
801c,
8014,
801b,
0020,
802b,
801f,
0013,
0011,
802f,
8029,
8009,
005e,
8015,
803a,
006a,
8018,
0021,
801f,
8052,
800c,
8027,
000d,
0030,
0036,
0021,
804d,
007d,
8033,
802c,
0066,
004e,
000e,
0034,
000d,
0013,
002d,
8047,
004a,
802b,
001b,
80a7,
803a,
004d,
00ba,
00d1,
009a,
0089,
8064,
00c3,
80a2,
8081,
806d,
801e,
8044,
0007,
8066,
8093,
00a4,
8046,
0090,
00a6,
80c6,
8021,
0040,
8022,
8082,
8030,
002b,
80c3,
802c,
0024,
8050,
8022,
0039,
0083,
0063,
80ac,
802f,
808f,
00c3,
009c,
807f,
0076,
8062,
0096,
8005,
0029,
008a,
000e,
005f,
007b,
0079,
802e,
0098,
806d,
00ba,
8021,
80ae,
0074,
0121,
8034,
0029,
800b,
8088,
8098,
8071,
0057,
8019,
8077,
800c,
0006,
0097,
0000,
0050,
8005,
80d7,
801a,
0046,
0040,
002b,
802e,
0043,
8011,
8087,
0020,
8023,
0052,
002f,
8003,
8017,
8004,
0050,
800b,
8034,
0004,
0001,
8054,
0060,
00d9,
0051,
000c,
8001,
80a9,
00fa,
8073,
0041,
002c,
8107,
0014,
0029,
0047,
0048,
8098,
00b9,
0042,
8011,
004b,
0015,
006e,
8023,
0079,
8055,
8008,
0032,
8054,
0067,
0014,
002b,
8045,
0026,
0021,
003b,
0061,
8040,
009e,
8050,
0010,
0003,
80ca,
80ce,
0053,
0059,
0089,
8014,
8041,
006f,
0038,
807c,
00cd,
80da,
00c4,
00e5,
8076,
003b,
80a0,
8054,
0007,
80cf,
803c,
802e,
803e,
801d,
00b5,
804d,
005d,
8075,
80c2,
00c2,
8068,
008a,
0069,
80f0,
0083,
8071,
0055,
804b,
8009,
00c8,
00b1,
0065,
0038,
0053,
8030,
8087,
8030,
8004,
0036,
006c,
802e,
001e,
8123,
805c,
8052,
8029,
00c5,
8001,
0002,
806b,
800e,
0045,
000c,
8069,
8094,
8023,
00e8,
009b,
00ac,
8020,
8069,
006d,
0089,
8017,
0061,
80fc,
0053,
000f,
8032,
0051,
0060,
007d,
0061,
0037,
004a,
0025,
8043,
0076,
803a,
0016,
00d1,
8002,
8115,
002e,
809d,
009e,
807d,
8019,
0096,
0007,
8071,
0021,
0018,
006b,
0034,
0044,
0023,
80e7,
0064,
8068,
8095,
004f,
8091,
0037,
0073,
8069,
806c,
0020,
80b9,
8079,
007a,
0075,
002f,
8028,
80c4,
00b8,
002f,
8030,
807a,
80aa,
801b,
001f,
0035,
8061,
8023,
0061,
8059,
80c0,
00d1,
80be,
004a,
00bc,
0006,
002b,
802b,
002e,
0030,
8007,
002f,
002f,
80cd,
0062,
003f,
804b,
005e,
0033,
80d4,
009b,
8030,
0060,
805b,
0043,
802a,
0002,
0006,
8026,
0092,
0065,
8062,
00a9,
000c,
80d0,
806b,
8039,
006d,
807a,
819a,
0060,
003d,
0065,
80e7,
001d,
0003,
8044,
0088,
007f,
8021,
8051,
80ab,
008d,
007e,
0032,
805f,
808a,
000b,
800a,
0065,
8029,
0018,
002a,
0070,
8067,
00dd,
805a,
0050,
8002,
803b,
809a,
8009,
8066,
005b,
8018,
8038,
0044,
8053,
801d,
00a0,
8081,
0040,
8014,
802d,
0052,
8034,
0035,
800a,
000d,
0098,
8048,
00d7,
0036,
8009,
00c7,
8045,
0032,
0034,
0015,
805b,
8056,
0019,
8018,
80dc,
0078,
8010,
0031,
8085,
8012,
0019,
0042,
0037,
009b,
005b,
804d,
8100,
0042,
0094,
8016,
8028,
0039,
0097,
0022,
0094,
8082,
000e,
00aa,
0016,
8036,
0076,
0016,
803b,
003a,
80ac,
0084,
8017,
8002,
8021,
8096,
0018,
000d,
8035,
8005,
0078,
003a,
0057,
806b,
002a,
8006,
0069,
8002,
802e,
004a,
003d,
800e,
003f,
0023,
0064,
0015,
8060,
0063,
8054,
80cb,
8074,
8020,
000d,
0060,
810e,
0061,
802d,
0055,
8005,
001a,
0041,
8057,
007d,
0060,
0077,
8064,
80a1,
0048,
0023,
003e,
8029,
8088,
0048,
0035,
0059,
8040,
800a,
003f,
