0000000000001011
1000000000000110
0000000000000011
1000000000000011
0000000000010110
0000000010010100
0000000000001100
1000000000100011
0000000000010001
0000000000110111
0000000001101010
1000000000100001
1000000000000011
0000000000100001
0000000000000110
0000000000001101
1000000000000001
0000000000000111
1000000000110001
0000000000110111
1000000000111001
0000000000000100
0000000000100101
1000000000000111
1000000000000100
1000000001001111
0000000001000011
0000000000110110
0000000001110001
1000000001001010
0000000000110100
0000000000111010
0000000000010001
0000000000111001
1000000001001110
1000000000100000
0000000000001010
0000000000100110
0000000000011001
1000000000111000
0000000000011000
0000000001010001
0000000000000010
1000000000100000
0000000001111110
1000000000001000
0000000000001011
0000000000010100
1000000001000110
0000000000110001
0000000001100111
1000000000001000
1000000001111111
0000000000111000
1000000000110000
0000000001000101
1000000000110011
0000000000010000
0000000000111100
0000000000001111
0000000000010111
1000000000000110
1000000000110010
1000000000110010
0000000000011111
0000000000111111
0000000000001100
0000000001011110
0000000000011111
1000000000010010
1000000000001001
0000000001100100
0000000000010111
0000000000010011
1000000000000111
0000000000001001
0000000000110000
0000000001001101
0000000000001001
0000000000001110
0000000001000110
1000000000100011
0000000000000111
0000000000011110
1000000000011100
1000000000001000
0000000000010000
0000000001011111
1000000000101000
1000000000001000
0000000000010011
0000000000000111
1000000000111100
0000000000101010
1000000000100111
1000000001010101
1000000001000001
0000000001000000
1000000000000011
0000000001011100
1000000000001110
1000000000101101
0000000000110011
0000000000010111
1000000000010110
1000000000011111
1000000000001010
0000000000000100
0000000001110101
0000000000011110
1000000000001000
1000000000011100
0000000000000100
1000000000001101
1000000000110011
1000000000011010
0000000000100000
1000000000011000
1000000000110110
1000000000111111
0000000000010001
1000000000111101
0000000000111000
0000000000001010
1000000000100101
0000000000001001
1000000000000111
0000000000000000
1000000000100101
0000000001101100
0000000000001101
1000000000000111
1000000000011100
1000000001010111
1000000000010101
1000000001100001
1000000000000111
0000000000110000
0000000000001001
0000000000000100
1000000000111011
0000000000010101
1000000000101011
1000000001101000
0000000000001110
1000000000010011
0000000000000101
1000000000001010
0000000000010000
1000000000010010
0000000000101100
1000000001100001
1000000001011000
0000000000001100
0000000000100000
0000000000110010
1000000000001100
0000000000111110
1000000000011100
1000000001100010
0000000000011100
1000000000111100
0000000000100000
1000000000010101
0000000000010010
0000000000000011
1000000000001100
1000000000101100
0000000000100010
1000000000111001
0000000000011100
1000000000000110
1000000000011001
0000000000000100
0000000000110001
0000000000010000
1000000001000011
1000000000000101
0000000001000100
0000000000000011
1000000000011010
0000000010000001
0000000000011100
1000000000100110
1000000000110111
1000000000101110
0000000001001101
0000000001110101
0000000000011010
1000000000111000
1000000000100000
0000000000101010
1000000000101111
1000000001101010
0000000000000100
0000000000100000
0000000000011001
0000000000111111
1000000000101001
0000000000101001
0000000000011101
1000000000111110
0000000000010110
1000000001101010
0000000001001011
1000000000011011
0000000001000001
1000000000010001
1000000000110110
1000000000011011
0000000000111101
0000000000011001
1000000000100010
0000000000011110
1000000000011001
0000000000001011
0000000000100101
0000000001001101
1000000001111110
0000000000011100
0000000000110111
1000000000001001
0000000000000001
1000000000011111
0000000000101010
1000000000101001
0000000001101100
0000000000010010
1000000000101110
1000000001000011
0000000001100001
1000000000001000
1000000001110000
0000000000110101
1000000000110000
0000000000011011
1000000000000110
1000000000110110
1000000000001100
0000000000111010
1000000001101000
1000000000001110
1000000000010101
0000000000100011
0000000001000000
0000000000001011
1000000000000011
1000000001001011
0000000001001111
0000000000110111
0000000000000011
1000000000100110
1000000000010000
1000000001011100
0000000000110110
1000000000010110
0000000001011000
1000000000110000
1000000000000000
0000000001100011
1000000000011001
0000000000100001
1000000001001110
0000000001000110
0000000000001001
0000000000011001
0000000000001111
0000000000001101
0000000000101100
0000000000001101
0000000000100101
0000000001010111
1000000000111000
1000000000111100
0000000001100100
0000000000111010
1000000000100111
1000000000000110
0000000000111100
1000000000000100
0000000000101101
0000000001100001
0000000000100000
1000000000001110
1000000000100111
0000000000001101
1000000000001000
1000000000001100
0000000001000101
1000000000000110
1000000000100110
1000000000010010
1000000000111000
1000000010010111
1000000000100101
0000000000001001
1000000000000000
1000000000100000
1000000000011111
1000000000011100
0000000000100010
0000000000110110
1000000000010111
1000000000000001
1000000000001010
0000000000001010
0000000001000111
1000000000000000
0000000001100000
1000000000101011
0000000000001101
1000000000101011
0000000000100110
0000000000110001
1000000001011001
0000000001111011
1000000001001101
1000000000100101
1000000000100010
1000000000101011
0000000000000011
1000000001000101
1000000000010000
1000000000111111
1000000000101110
0000000000011000
1000000000011001
1000000001010011
1000000001010110
1000000000000101
1000000000000000
1000000000100000
0000000000010100
1000000000011000
1000000001000000
0000000000011110
1000000000011110
0000000000001101
0000000000101011
0000000010110110
1000000000000000
1000000000100100
1000000000011010
0000000000011010
0000000000001101
1000000000001100
1000000000000000
0000000000000100
0000000000110101
1000000000101001
0000000000001000
0000000000001101
1000000000110010
1000000000000010
0000000000000100
0000000000010011
0000000000011011
0000000000110010
0000000000011101
1000000000000101
0000000000011000
0000000000000111
1000000000011110
0000000000010000
1000000000000110
1000000000000011
1000000000100101
1000000000100100
0000000001111111
0000000000000110
0000000000010001
0000000001001010
0000000001001011
1000000000010011
0000000001101100
1000000000100111
1000000000001001
0000000000110111
0000000000110111
1000000000010001
0000000000101011
1000000000111101
0000000000111101
1000000000100110
0000000000001010
1000000000100000
1000000000111011
0000000000100011
0000000000011101
0000000000001011
1000000000001011
1000000000110110
1000000000010110
1000000000110000
1000000000000010
0000000000000000
0000000000000100
0000000000001100
1000000000001101
1000000000111000
1000000001110010
1000000000101000
1000000000011100
0000000000011100
0000000001011011
0000000000100111
0000000000011011
1000000000000101
1000000000011001
0000000000001111
0000000000010101
0000000001010011
0000000000000000
0000000001101101
1000000000101111
0000000001101000
1000000000011100
0000000000001110
1000000000100011
1000000000011101
1000000000000110
1000000000011100
0000000000101010
0000000000111011
1000000000001001
0000000001100010
1000000000110000
0000000000001110
0000000000110101
1000000000011000
1000000000100111
1000000001001010
0000000000010110
1000000001111000
1000000001011100
0000000000101110
0000000000010111
1000000000111110
1000000000011001
0000000000001101
0000000001010001
0000000000100100
0000000000110100
1000000001001001
0000000000000000
0000000000100010
0000000000011111
1000000000010101
1000000001000000
1000000000000001
1000000000001010
1000000000001001
1000000001010110
1000000000101100
0000000001000110
0000000000001001
0000000000010011
0000000000100110
1000000000110010
1000000001000010
1000000001111101
0000000001001101
0000000000100111
0000000000001101
0000000000010000
0000000000000000
0000000001000001
1000000001000110
1000000001100110
1000000000011011
0000000000000100
0000000001011100
0000000000011110
0000000001110100
0000000001001010
1000000000010101
0000000000010011
1000000000111100
0000000000010110
1000000000010111
1000000000011110
1000000000111001
1000000001110010
1000000000010000
0000000001100100
0000000000000101
0000000000100110
1000000000100010
0000000001010111
0000000000100100
0000000000100010
1000000000010101
0000000000000001
1000000000000010
0000000000000110
0000000000000000
1000000000010110
1000000000000001
0000000000011011
0000000000100101
1000000000110111
0000000000011100
0000000000000011
1000000000110010
0000000001011101
0000000000010000
1000000000000011
0000000001011001
0000000000101100
1000000000100100
1000000000010111
1000000000111100
1000000000000111
0000000000111101
1000000000000101
1000000000110101
1000000001011010
0000000000011011
1000000000000100
0000000000101011
0000000001101011
1000000000010010
1000000000011110
0000000000110101
1000000000001001
1000000000100000
0000000000101010
1000000001000110
1000000000010101
0000000001100101
1000000000110001
1000000000011111
0000000000000101
1000000000000000
1000000001010100
1000000000011100
1000000000100011
1000000000000000
0000000000100101
1000000000001011
0000000001011010
1000000000101000
1000000000101101
1000000000000010
1000000000011010
1000000001110000
0000000001100010
1000000010100010
1000000000101000
0000000000010111
1000000000100110
0000000010000000
0000000000001001
1000000000100010
0000000000000111
1000000001010011
0000000000011110
0000000001100000
0000000000011010
0000000000111111
1000000000010110
1000000000000011
0000000000000100
1000000000000110
1000000001001001
0000000000110001
1000000000110010
0000000010000100
1000000001001001
1000000000111000
1000000000110010
0000000000011011
0000000000000010
0000000000010101
1000000001001000
1000000000001001
0000000000110100
0000000000000110
1000000000000111
1000000000010111
0000000000100011
0000000001000111
1000000000100111
0000000000110100
1000000000010101
1000000001011011
0000000000010010
0000000000010100
1000000000100100
0000000000011000
1000000000010110
1000000000000100
0000000001001001
1000000000011010
0000000000101110
1000000001010110
0000000001100101
1000000000101000
0000000000010001
1000000000001000
1000000000000101
1000000000111000
1000000000000001
1000000000010001
0000000000011010
1000000000001100
1000000001100000
1000000000000110
0000000000010001
0000000000100000
1000000000010010
0000000000001010
0000000000100001
0000000010010001
0000000000010100
0000000000111000
0000000001000111
0000000000110100
0000000000000101
0000000001011000
1000000001001101
0000000000010111
1000000001010000
1000000001101100
1000000010001101
0000000000111100
1000000000001110
0000000000101110
1000000001111110
0000000001010101
1000000000110101
0000000000011100
1000000000000001
1000000000111100
0000000000100011
0000000000101001
0000000000110100
0000000000110001
1000000001010100
1000000000000000
0000000000001111
0000000000110100
1000000000011010
0000000000000010
0000000000100010
1000000000100100
1000000000100010
0000000001010101
1000000000100010
1000000000101001
1000000000001011
1000000000000101
1000000000010010
0000000000000111
0000000001010100
1000000001000011
1000000000011001
0000000000001011
1000000001100010
1000000001010110
1000000000111111
1000000000110000
0000000001101001
0000000000100010
0000000001000010
1000000000110111
1000000001110100
1000000000000010
1000000001011110
0000000001011100
0000000001001100
1000000000000000
0000000000011101
0000000001000000
0000000000110010
0000000000010000
1000000000011010
1000000000111111
1000000001011100
1000000000100011
1000000001010100
1000000000011100
1000000000100100
1000000000100100
0000000000101000
0000000000010011
1000000000111110
1000000001001101
1000000000011001
0000000000010011
1000000000011001
0000000001010111
1000000001010111
0000000000000010
1000000000000111
1000000000101101
1000000000100010
1000000000111111
1000000000011011
0000000001001101
1000000000101110
0000000000000001
0000000000011111
0000000000000111
0000000001100001
0000000000110111
1000000000100001
0000000000101100
0000000000100001
1000000000100011
1000000000001011
0000000000110110
0000000000110110
0000000000001101
0000000000001001
1000000000111110
1000000001001110
0000000000101100
1000000001001000
0000000000001101
1000000000101000
0000000000111111
0000000000001001
1000000000100111
0000000001100001
0000000000011110
1000000001010010
1000000000101001
1000000001000010
0000000001010111
1000000001010111
1000000001011100
0000000000010000
0000000000000000
1000000000001010
1000000001001010
1000000000110010
0000000000010101
1000000000110110
1000000000001111
0000000001001011
1000000001010000
1000000000001110
1000000010000100
1000000001100000
1000000000100101
0000000001001101
0000000000011011
1000000000010111
1000000000100011
1000000000000010
0000000000011100
1000000000110010
1000000001001011
1000000000000011
1000000000001101
1000000000101010
1000000000001100
0000000000011101
0000000000110000
1000000000010000
1000000000001001
0000000000100011
0000000000101111
1000000000011011
0000000000011010
0000000000010100
1000000001010101
1000000011001010
1000000001110011
1000000001001001
1000000001111111
1000000000110111
1000000001111001
0000000001110110
0000000000101100
0000000000000010
0000000001100001
1000000001100000
0000000001010101
1000000000111110
1000000000101011
0000000001100000
0000000001001110
0000000001110000
1000000000110101
1000000001110001
0000000000001010
1000000000110100
1000000001100011
0000000010011011
1000000000110010
0000000000111011
1000000001000111
0000000010110011
1000000001000000
1000000001011000
1000000001001011
0000000000000000
1000000001000101
0000000001011000
1000000001000100
0000000001100110
0000000000110110
1000000000000100
0000000001101010
0000000000101000
0000000001001011
1000000001011000
0000000000001010
0000000000100110
1000000001011001
1000000000111100
1000000001100011
1000000000001000
1000000000001110
0000000000001101
1000000000000101
1000000001100011
0000000001100011
1000000001100001
1000000000100001
0000000001110111
1000000000000111
1000000000001101
1000000001000011
0000000000111011
0000000010000100
1000000001001111
1000000000001010
1000000000011100
1000000000001100
1000000000111100
0000000000010100
1000000000010000
1000000010011010
1000000000010000
1000000000000000
0000000000111101
0000000000111000
1000000000000110
0000000001001011
1000000000100011
1000000000010101
1000000001111100
0000000000100101
0000000001111111
0000000000111001
1000000000001010
1000000000000000
1000000000001000
1000000000100000
1000000000010111
1000000001110111
0000000000100010
1000000000110001
0000000010110110
1000000001000100
0000000001000100
0000000000001111
1000000000101010
1000000000001111
1000000000110000
1000000000001010
0000000001010000
1000000001100001
1000000000001010
0000000001011001
0000000001011110
0000000001011010
0000000010000000
0000000001010000
1000000000011101
0000000001101001
0000000001011111
1000000000110010
1000000001111010
1000000001001111
1000000001000100
0000000001100111
0000000001001110
1000000001110011
1000000000111100
0000000001100001
1000000000110110
1000000000000011
0000000001000000
0000000000010010
0000000001011111
0000000001000010
0000000010101100
0000000010001010
0000000000100010
1000000010000110
1000000001000001
0000000000011101
1000000001011110
0000000000010111
0000000001100001
1000000000000000
1000000000000001
0000000000000001
1000000000000011
1000000000111000
1000000000011011
1000000000010111
1000000000100100
1000000000101000
0000000000101010
1000000000001000
0000000000011111
1000000000100001
1000000000010001
1000000000000110
1000000000010100
0000000000100101
0000000000010001
0000000000100100
1000000000000000
0000000000100101
1000000001000010
0000000000111000
1000000001001011
0000000000000110
0000000000011110
0000000001011010
0000000000100011
0000000000100011
1000000000001010
0000000000001100
1000000000000110
1000000000000010
1000000000010111
1000000001100001
0000000000111010
1000000000110000
0000000000010011
0000000000011011
1000000000101000
0000000000011000
0000000000011011
0000000001001110
0000000001001001
0000000000101001
0000000001100101
1000000000000101
0000000000100110
0000000000011001
0000000000110100
0000000001000011
1000000001100101
1000000001001110
1000000000000011
0000000000001111
0000000000011110
1000000000011101
0000000000010001
1000000000011000
1000000000101101
0000000000111010
0000000001100100
1000000001000011
1000000000111001
0000000001100000
0000000001010010
0000000000111000
1000000001100100
1000000001010111
1000000000110010
1000000000001111
1000000000100111
1000000000101010
0000000010001111
0000000000111010
1000000000101111
1000000001001100
0000000000110011
0000000000001011
1000000000001010
1000000000011010
1000000001000001
0000000001111001
1000000000101001
0000000000001001
1000000000011100
0000000000001101
0000000000011010
1000000000000101
0000000000011110
0000000001000010
0000000000111110
1000000000010100
0000000000100101
0000000001000100
1000000000001001
0000000000110111
0000000000001101
1000000001111110
0000000000111000
0000000000111011
0000000000100101
0000000000001011
1000000001110001
0000000001010000
1000000000000110
1000000000110100
0000000000000111
0000000000101110
1000000001000110
0000000000100101
0000000001000010
0000000000000011
0000000000000000
1000000000101101
1000000010100000
1000000001100001
1000000001000110
1000000000011111
1000000000111001
1000000001110010
1000000000010001
1000000000100100
1000000000001111
0000000000111111
1000000000101011
0000000000001100
1000000001011101
0000000001010010
1000000000011111
1000000000000010
1000000001100011
0000000001110110
0000000001100101
1000000000010110
1000000001001010
1000000000100100
1000000001010110
0000000000111001
1000000000010111
0000000000111110
1000000000010010
0000000000110101
0000000000011101
0000000000011011
0000000000010111
1000000000001111
0000000001110110
1000000000011110
0000000000111101
1000000000011110
1000000000001011
0000000001110011
1000000000101110
0000000010000010
0000000000100001
0000000000000111
1000000000001100
0000000000000000
1000000000000101
0000000000011000
0000000000010110
0000000000111101
0000000000001100
0000000000100001
1000000000000000
0000000000000011
0000000000100111
1000000001011001
0000000001000110
1000000001001101
0000000000001000
0000000000001011
0000000000000110
1000000001001111
0000000000000011
1000000000001110
0000000000011011
1000000000001100
1000000001001000
1000000001110010
1000000001011001
0000000000010001
0000000000001101
1000000001010000
1000000001011010
0000000001011010
1000000000001110
0000000000100110
1000000000100101
0000000000001000
1000000000010111
1000000000001001
1000000000100110
1000000000101010
1000000000011010
0000000000110101
1000000000010111
1000000001011010
1000000001101110
0000000001001000
1000000000111000
0000000000100111
1000000001001111
0000000000101100
0000000001011001
1000000000010110
0000000000011011
1000000000001000
0000000001100101
0000000000100100
1000000000000011
0000000000111110
0000000000010100
1000000000010101
1000000001000110
0000000000010101
1000000000000110
1000000000100000
0000000000011110
0000000000010111
1000000000111101
1000000000011011
1000000000000111
0000000000110100
1000000000110100
0000000000001111
0000000000100100
1000000001100001
1000000000101111
1000000001001010
1000000000010000
1000000001011001
0000000000011110
1000000001011110
0000000000111101
0000000000001001
1000000000001010
1000000001010100
0000000000011010
1000000001110111
0000000000011101
0000000001101111
0000000000001100
1000000000111100
1000000000000100
1000000000100011
1000000000011000
0000000000100101
1000000000001010
0000000000010111
1000000000001100
1000000001000011
1000000000110011
0000000001011100
0000000000010100
0000000001000101
1000000000100100
0000000000100001
0000000000000110
1000000000111010
0000000001010010
1000000000110111
1000000000000110
0000000000110101
0000000000000011
0000000000111000
1000000000111101
1000000000100100
0000000000001001
1000000010000000
0000000000000101
0000000000100101
1000000000100010
1000000000111010
1000000001010110
1000000000001110
1000000000011010
1000000000010110
0000000000001110
0000000000010101
1000000000010101
0000000001001001
0000000000011010
1000000000010001
1000000001011101
1000000000001010
1000000000111100
1000000000010001
0000000000110000
1000000001010100
0000000000011001
0000000000011100
1000000000011011
1000000000011001
1000000000001001
1000000001100000
0000000000000110
0000000000101011
0000000000111000
1000000000100011
1000000000010111
1000000000010111
0000000000111101
0000000000010001
1000000000110000
0000000001111111
1000000000011101
1000000001001000
1000000000110111
0000000000010110
1000000001000111
0000000000100101
1000000000110011
1000000000001000
0000000000011101
1000000000000001
1000000000100001
1000000000111001
1000000000001000
1000000000100001
0000000000010000
1000000000100001
1000000000001111
1000000000001011
1000000000001111
1000000000011101
1000000000100111
1000000001101011
1000000000001001
0000000001001101
1000000000000100
0000000001000101
1000000000001111
0000000000001101
1000000000100100
0000000000011101
0000000000011111
0000000000111101
0000000000011100
1000000000111110
1000000000110001
1000000000011001
1000000001001110
1000000000100011
1000000001110000
1000000000101101
1000000001001110
1000000000101011
0000000001000000
0000000000001110
1000000000100100
0000000000100110
0000000000111000
0000000000010000
0000000000000111
1000000000101010
0000000000000000
0000000000000010
0000000000101111
0000000000011010
1000000000000110
1000000001100001
1000000000100010
0000000000000010
1000000000011100
0000000000000111
1000000000100110
0000000001010011
0000000000001111
1000000000001100
1000000000010000
0000000000010011
0000000000000001
1000000000110110
1000000001011110
1000000000011101
0000000000000010
1000000000101101
1000000001110010
0000000000111000
1000000001111010
1000000000101101
0000000000100001
0000000001001011
0000000000001010
1000000000010101
0000000000001010
1000000000010110
0000000000111001
1000000000110100
0000000000001000
0000000000100110
1000000001000101
0000000001001011
1000000000101011
0000000000000001
1000000000010001
1000000001000100
0000000000101111
0000000000010110
0000000000011110
1000000001001010
1000000000101111
0000000000111011
0000000000010110
1000000000101011
1000000001010010
0000000000111001
1000000001000110
0000000000000110
0000000001010111
0000000000100001
1000000000101101
1000000001000110
0000000001011111
1000000000110011
1000000000100011
1000000000000001
0000000000000000
1000000000001001
1000000000010000
1000000001011110
0000000000100111
1000000000010010
0000000000000001
0000000001010100
1000000000110010
0000000000011101
1000000000001111
1000000000000001
0000000000100000
1000000000110110
0000000000001100
1000000001000011
1000000001100010
0000000001010110
1000000000011000
1000000000010110
1000000000101111
0000000000110100
1000000000001000
0000000000000011
0000000000011111
1000000000001010
0000000001000001
0000000000011110
0000000000111101
1000000000011010
0000000001101011
1000000000110110
0000000000001101
0000000000001011
0000000000000100
1000000001011101
1000000000101100
1000000000011110
0000000000111010
1000000000000000
0000000000101110
0000000000110011
0000000000011000
1000000000000010
1000000001010000
1000000000000000
0000000000001000
0000000000001001
1000000000001110
0000000000110010
0000000000010111
1000000000100000
1000000001010100
0000000010001011
0000000000010110
1000000001001010
1000000000010000
0000000000010111
0000000000000011
1000000000011111
0000000000011111
0000000000010111
1000000000001011
0000000000010010
1000000000010101
0000000001001100
1000000000011010
0000000000001110
1000000000000110
1000000001010101
1000000000011101
1000000000001110
0000000000010111
1000000001001001
0000000000010110
0000000000110101
0000000000010111
0000000001011000
1000000000000000
0000000000010100
1000000000101111
0000000000101000
0000000000101101
1000000000011100
0000000000010111
0000000000001000
0000000000001100
1000000000011000
0000000000100011
0000000001011011
1000000000100111
1000000001101011
1000000001001001
0000000000110010
1000000000001100
0000000000101111
0000000000010110
1000000001110110
0000000001010000
1000000000000101
0000000000111001
1000000000000101
0000000000011100
0000000000011100
1000000000100010
0000000000000011
1000000001100010
1000000000011110
0000000001100111
1000000001001000
1000000000000111
1000000000001101
1000000000000001
0000000000000010
0000000000000110
0000000000001010
0000000000110010
0000000001000001
0000000001111001
0000000001011001
0000000000010100
1000000000111111
1000000001001111
1000000000011101
1000000001000011
1000000000001001
0000000001000100
1000000000011001
1000000001001101
0000000000010011
1000000001001000
1000000000100000
1000000000011111
0000000000000101
1000000000000011
0000000000000100
1000000000001000
0000000000000001
1000000001001011
1000000000010011
0000000000101110
0000000000011110
1000000000101000
0000000000000001
1000000000011000
0000000000110010
1000000000110010
0000000001100100
0000000000001001
1000000000000111
0000000000001110
1000000000010001
1000000000110111
1000000000100010
1000000000000100
1000000001100100
0000000000001111
0000000000011111
0000000001001011
0000000000100101
1000000000001010
0000000000001111
1000000001010001
1000000000010001
0000000000000101
1000000000001010
1000000000000011
0000000000011110
1000000000101001
1000000001000001
1000000000100100
1000000000011001
1000000000010101
1000000000001001
0000000000100000
0000000000011110
0000000010011101
0000000000011011
1000000000000110
1000000001101001
0000000001110001
1000000000000100
1000000001100001
1000000000000001
1000000000011011
0000000000010010
0000000000011101
1000000001000011
0000000000010000
0000000001011110
1000000001110111
1000000000011001
0000000000110010
0000000000000001
1000000000011101
1000000000000111
1000000000100011
0000000000010010
1000000000010000
0000000000001000
1000000000110011
0000000001001111
1000000000010111
1000000001000110
1000000000010101
1000000000100010
0000000000111001
0000000000101011
0000000000000000
0000000001011100
1000000001001001
1000000000010111
1000000000100000
0000000000001101
0000000000000111
1000000001110111
1000000000111110
0000000000101111
1000000001000000
1000000000101111
1000000000011001
0000000000101010
1000000001110110
1000000000011110
1000000001011001
1000000000000001
0000000000001011
0000000001001001
1000000000001011
0000000001001100
1000000000100011
0000000000011001
1000000000011010
1000000000001000
0000000000111011
1000000001011110
1000000000000111
0000000000000101
1000000000110100
1000000000001111
1000000000100100
0000000000001101
1000000010000001
1000000001001011
1000000000100011
1000000000011101
0000000000101010
1000000001011000
1000000000011101
1000000001000010
1000000000100011
1000000000100100
1000000000110011
1000000000001110
1000000000111111
1000000000001010
1000000000010101
1000000000101000
1000000000101100
0000000000110001
0000000000011010
1000000001010110
1000000000100111
1000000000001010
1000000000001011
0000000001000111
1000000000010110
0000000000001011
0000000000101010
1000000000011101
0000000000100100
1000000001100111
1000000000010001
0000000001000100
0000000000001111
0000000000100011
1000000000000111
0000000000000000
0000000000011011
0000000000100100
0000000000001111
0000000000100100
0000000000011110
1000000000100000
1000000001011101
1000000001100011
0000000000100000
1000000010000111
0000000000001001
1000000000101000
1000000000111110
1000000000000011
1000000000100000
1000000000110001
0000000000101111
1000000000101000
0000000001111011
0000000000000101
1000000001000011
1000000001010100
0000000001001001
1000000000101101
0000000001101010
0000000000010101
0000000000101110
0000000000110110
0000000001000111
1000000000011110
0000000000010001
0000000000110010
0000000000100101
0000000000100011
0000000000111001
1000000000010011
1000000000000111
1000000000100110
1000000000100100
0000000000000000
0000000000001011
1000000000110010
0000000000011011
1000000000101000
0000000000000110
0000000000000111
0000000001100001
1000000001010011
1000000000110010
1000000000001100
1000000001110001
0000000000110001
0000000001111010
1000000000011000
0000000000010100
1000000000000001
1000000000010011
0000000000010011
1000000000001000
0000000001001111
0000000000001110
1000000000010011
0000000000100011
1000000000100011
0000000000111110
0000000010010011
0000000000010011
1000000000111010
1000000001010010
0000000000010011
0000000000101011
1000000001011111
0000000000001100
0000000000111000
0000000000011101
1000000001010010
1000000000100001
0000000001100100
0000000000001011
0000000000000100
1000000000001010
1000000000000111
1000000000101011
1000000001001000
1000000001100010
0000000000000000
1000000000001110
1000000000000001
1000000001000011
0000000000000101
0000000000110100
1000000000111110
0000000001000100
0000000000101010
1000000000000100
1000000000010011
0000000000110001
0000000000001011
1000000000001000
1000000000100111
1000000000100010
1000000000000110
0000000000010100
0000000000100011
0000000000101111
1000000001101011
0000000000110100
1000000000010010
0000000000011111
0000000000111111
1000000000010111
1000000000010001
0000000000011111
1000000000100001
1000000000110100
0000000000010111
0000000000110011
1000000000001110
0000000000100100
1000000000100000
0000000000011001
0000000000111110
1000000000100110
0000000000001100
0000000001110100
1000000000010001
0000000000101010
1000000000001001
0000000000011100
1000000000101001
1000000001011000
0000000000011101
0000000000101011
0000000000000111
0000000001000100
1000000000000010
1000000000100000
0000000000111001
1000000000110110
0000000000010101
1000000000010101
0000000000001010
1000000000100110
1000000000000101
0000000000010001
1000000000000001
1000000000010100
1000000000100010
0000000000110000
1000000000010101
0000000000101111
0000000000010010
1000000001001010
0000000001000010
0000000001011010
1000000000001100
1000000000000011
1000000000000111
0000000000111100
1000000000001011
0000000000000110
0000000001001001
1000000000101101
1000000000011001
1000000000010011
0000000000111010
1000000000110101
1000000000000110
1000000000011010
0000000000110101
0000000000011010
1000000001001111
0000000000100101
0000000000000000
1000000000101011
0000000000011100
1000000000000100
1000000001000111
0000000000100110
0000000000011010
1000000000101000
1000000000011000
0000000000101101
0000000000100100
0000000000000000
1000000000110000
0000000000000011
1000000000000101
1000000001011001
1000000000010001
0000000000011101
0000000000000101
1000000000001110
1000000001000111
1000000000011000
1000000000000000
0000000000100100
1000000000011011
0000000000000010
0000000000000111
1000000000001110
0000000000110011
1000000000001101
0000000001101000
0000000000010101
1000000000100000
1000000000011100
1000000000010110
0000000000100101
0000000001010010
0000000000101011
0000000000010100
0000000000000110
1000000000110000
0000000000111110
0000000000110101
1000000000101101
1000000000101010
1000000000001011
0000000000000000
0000000000101010
0000000000100010
1000000000001000
1000000000010101
1000000000011111
0000000000111110
1000000000010110
1000000000001001
0000000000011110
1000000000001101
0000000000111010
1000000001110010
1000000000101011
1000000000001111
1000000001101000
0000000001011011
1000000000011100
1000000001101100
1000000000101000
0000000000000001
1000000001000011
1000000000001110
1000000001001001
1000000000010100
1000000001010011
0000000000111011
0000000001110010
1000000000100111
0000000000000000
1000000000000110
0000000000011000
1000000000011101
0000000000111001
1000000000011010
0000000000101000
1000000000100011
1000000001001000
1000000001000111
1000000000010000
0000000000000110
1000000000110111
0000000000011001
0000000000011100
1000000000011101
0000000000101010
0000000001010100
0000000000100010
1000000000110100
1000000001010000
0000000000000001
1000000000001000
1000000001001101
0000000000011110
1000000000011010
0000000001101110
1000000000010111
1000000001000110
1000000000010001
1000000001001000
0000000000110000
0000000000011101
1000000000110111
0000000000010010
1000000000010000
1000000000000101
1000000000100000
1000000000100111
1000000000000100
0000000000001010
0000000000011000
1000000000011000
0000000000111001
0000000000100101
1000000000110000
1000000000001111
0000000000010000
1000000000100100
0000000000000011
1000000000010110
0000000000010111
0000000000010010
1000000000110011
1000000001001010
1000000000000010
1000000000100110
0000000000110001
0000000000010000
1000000000000111
1000000000000011
1000000000101000
1000000000011000
1000000000110001
0000000000001111
0000000000001000
0000000001000001
1000000000111000
0000000000011011
0000000000111111
1000000001011100
0000000000000001
1000000000101110
1000000000000100
0000000000011000
0000000000010001
0000000000101010
1000000000000101
1000000001111011
1000000001010101
1000000000010000
1000000000010100
0000000000101001
0000000000011010
1000000000100000
1000000000001010
0000000000001101
0000000000001010
1000000000001110
0000000000010110
0000000000100000
0000000000111101
0000000000111001
0000000001100011
1000000001110011
1000000000011110
1000000000000011
0000000001000100
0000000001101001
1000000000001001
1000000000101011
0000000000000000
0000000001110001
0000000000100011
1000000000010001
1000000000110011
1000000001000000
1000000000101100
1000000000010101
0000000000100001
1000000000110111
0000000000001010
0000000001001001
0000000000010110
1000000000100101
1000000000111100
1000000000010001
0000000000000100
0000000000111000
0000000000100010
0000000000011110
0000000001000111
1000000000000110
0000000000011011
1000000001000001
0000000000001010
0000000000000010
0000000000000101
0000000000101010
0000000000001101
0000000000111011
0000000000010111
1000000000001101
1000000000001100
0000000000000011
1000000001000000
0000000001010111
0000000000000101
1000000000010010
1000000000001110
0000000001100001
1000000000001000
0000000000001110
0000000001000100
0000000000100111
0000000000110000
0000000000000001
1000000000000011
0000000000110000
0000000000011100
0000000000001111
1000000001011001
1000000000110000
1000000000101111
1000000000110110
1000000001001110
1000000000000010
0000000000000100
0000000000101101
1000000000001110
1000000000100000
0000000000000101
0000000000000011
0000000000011101
1000000000111011
1000000001010101
0000000000001001
1000000000000011
1000000000001110
0000000000010100
1000000000111110
0000000000111101
1000000000001111
0000000000100000
0000000001001011
0000000000101100
1000000000001010
1000000000001000
0000000000101110
1000000000001010
1000000000001010
0000000000000111
0000000000000000
1000000000000111
1000000000000110
0000000001001111
1000000000010110
1000000001100011
0000000000001110
1000000000010100
0000000000101110
0000000000110101
1000000001100001
0000000001011011
0000000001100000
1000000001001111
0000000000000010
1000000000111001
0000000000010111
0000000001000110
1000000000110010
1000000000011111
0000000000100111
0000000000011110
0000000001000011
0000000001010111
0000000000101000
1000000000000000
1000000000010010
0000000001000100
0000000000010011
1000000000000101
0000000000010100
0000000001111001
0000000001010010
1000000000100011
1000000000000011
0000000000101010
0000000000001101
0000000000111110
0000000000001101
1000000001101010
1000000001010010
1000000001110010
1000000000100000
1000000001000101
1000000001100110
1000000001010100
0000000000001100
1000000000100111
1000000000000100
1000000000111100
1000000000001001
0000000000100110
1000000010010101
0000000000100111
0000000000010000
0000000000010010
0000000001000010
0000000010000001
1000000000000111
0000000001100010
1000000000110001
1000000000110010
0000000001011000
1000000000010110
0000000001011101
0000000000010011
1000000000011010
0000000000100010
0000000000001010
1000000000001001
0000000001000111
1000000001100000
1000000001010000
0000000000111010
0000000000010001
1000000000010110
0000000000110100
0000000001010100
0000000001010101
1000000000100010
1000000001001101
0000000001111111
1000000000001001
0000000000010100
1000000001010010
1000000000100001
0000000000000100
0000000001011111
1000000001110110
0000000000100011
1000000000001001
0000000001110111
0000000001001100
0000000001110000
0000000000001010
0000000001100010
1000000001011010
0000000000011111
1000000000011110
0000000000010000
1000000000000010
0000000010001000
0000000001011111
1000000001001011
0000000001001111
1000000000110010
1000000000101100
0000000000010111
0000000000011100
1000000000100000
0000000001100000
0000000000110101
1000000000011000
0000000000000000
0000000000010100
1000000000111111
0000000000000110
1000000000011100
0000000000001101
0000000000001000
1000000000110110
0000000000100111
0000000000100011
0000000000010011
1000000001000101
0000000000100101
0000000000011111
0000000000111110
0000000000101101
0000000000110110
1000000000001010
1000000001100001
1000000000001011
1000000001001001
0000000001111001
0000000001100100
1000000000111110
0000000000011001
0000000001110111
0000000000011111
0000000000001011
1000000000100010
0000000000101110
1000000000101000
0000000001001101
0000000001000111
1000000000111111
1000000000111010
1000000001111111
0000000010000011
1000000000111010
1000000000111001
1000000001111111
1000000011010011
1000000001010000
1000000001000000
0000000010011101
0000000001101001
1000000000000010
0000000001011111
1000000010010010
0000000010001001
1000000001110111
1000000010000000
0000000011010001
0000000001110011
0000000000000111
1000000000010101
1000000011100001
0000000010110110
1000000000110100
1000000010111101
0000000010100110
1000000001000111
0000000011001010
0000000010010111
0000000001010001
0000000000111011
1000000001001010
0000000000110011
1000000010001010
1000000010111111
1000000000100011
1000000000100001
0000000001001110
0000000001101011
1000000000010110
0000000001111000
0000000001101001
0000000000110110
1000000001110000
0000000000011010
0000000011000101
1000000010100010
1000000010101010
1000000010000001
1000000100011110
1000000001111001
0000000011011110
0000000000111001
1000000001101010
0000000000111011
1000000000111100
1000000001100111
0000000010000110
0000000001100110
0000000010111111
1000000011000101
0000000001000001
0000000001101101
1000000001110110
1000000010000011
0000000000101011
0000000011011010
1000000010110110
1000000010101101
1000000100100011
1000000010010001
1000000000001001
1000000011011011
0000000010110111
0000000010001000
1000000001000011
0000000010100111
1000000001001100
0000000000111001
0000000000011001
1000000010001100
0000000100001101
0000000000101100
0000000000010000
0000000000000000
1000000001110010
0000000010101111
1000000001111101
1000000001110000
0000000011000100
1000000011010000
0000000010000111
0000000001100000
0000000001100011
0000000000101001
1000000000010111
1000000000101110
0000000000101100
1000000010110110
1000000000010011
0000000001110010
0000000011001000
0000000000011110
0000000001000101
0000000001000110
0000000100101010
0000000001001101
1000000000110000
0000000001100011
0000000011011100
1000000001110111
1000000010010100
1000000001101111
1000000010100001
0000000001010001
0000000001101010
0000000011000101
0000000001101010
0000000010110110
1000000000010010
1000000000100000
0000000010110010
0000000000101011
0000000000101111
1000000001101011
0000000010111110
0000000001110100
1000000001011010
1000000001101110
1000000001110001
0000000011010100
1000000100011001
1000000010000000
1000000100100001
1000000011001111
1000000011001110
1000000010010100
0000000000010011
0000000001001001
1000000001001011
0000000011001100
1000000010000100
0000000001101011
1000000010011111
1000000001011100
0000000100011110
0000000010101100
0000000000111000
1000000000001101
1000000001101110
0000000010010111
1000000010011010
1000000010101110
0000000011010100
1000000001001011
0000000011100001
1000000000010101
0000000000101011
1000000001000110
1000000001011001
0000000000001010
1000000000111000
1000000001110011
0000000001111100
0000000001011011
0000000010011110
0000000010011001
0000000001000011
0000000010010010
0000000011010011
0000000010000100
1000000001001000
0000000000010000
0000000011001010
1000000001010011
1000000010111011
1000000010010101
1000000011000110
1000000001001101
0000000101000010
0000000000000111
1000000001100000
0000000010000011
1000000000111000
1000000001000101
0000000001100111
0000000011010100
0000000011000110
1000000010010111
0000000011000010
0000000100010001
1000000001101100
1000000001111110
1000000000111111
0000000000100011
1000000010110100
1000000010110100
1000000011101100
1000000100001100
1000000010111110
1000000001100110
0000000001100111
0000000001110010
1000000000111010
0000000010111010
1000000000110000
0000000000010011
1000000001011000
1000000011110111
0000000010010110
0000000011000000
0000000000001111
1000000001010010
1000000010011001
0000000001010100
1000000010000101
1000000000101100
0000000011011101
1000000011010010
0000000000100111
0000000000111011
0000000000100110
1000000000000111
1000000010001111
1000000010000011
1000000010111000
1000000001101001
0000000001011000
1000000001010011
0000000010110110
0000000001011101
0000000000010010
0000000000010100
0000000010001001
0000000010111110
1000000010010111
1000000001000110
0000000011011011
1000000000111111
1000000001100010
1000000011010111
1000000011101001
1000000001001000
0000000001101010
0000000000100010
0000000000011010
0000000010011101
1000000001010010
1000000000110100
0000000010111101
0000000001101100
0000000001001101
1000000001001010
0000000011000010
0000000010111011
0000000000010011
1000000000100000
1000000000001011
0000000010011011
1000000010001111
1000000001111011
1000000010011101
1000000010110100
1000000000011111
1000000010011000
0000000000101010
0000000010101001
1000000000110011
0000000010011001
1000000000111000
0000000000100001
1000000000110010
1000000010010111
0000000001011000
0000000001001110
0000000000000000
1000000001001101
1000000011000011
0000000000111000
1000000001110100
1000000000011000
0000000010100101
1000000010111010
0000000010001111
1000000000101010
1000000001010001
1000000000100101
1000000001001000
0000000001101011
0000000000010110
1000000000111001
0000000001110000
1000000010101100
0000000001001101
0000000001111101
0000000001001110
0000000001110000
0000000001101110
0000000010001010
1000000000001111
0000000001100101
0000000011100011
1000000000011010
1000000001001100
1000000010011110
1000000001100111
1000000001101001
0000000000100100
0000000001001011
1000000000100011
0000000001101111
1000000010011011
1000000000011001
0000000001011111
0000000000000100
0000000001001001
1000000010001000
0000000001010010
0000000000101110
1000000010111101
1000000000101011
1000000001000111
1000000000011001
0000000000001110
1000000011011001
1000000000011001
1000000000011110
1000000000011111
0000000001011100
0000000010001100
1000000000011010
1000000000000000
0000000000101001
1000000001011111
0000000000110000
1000000010001000
1000000010001100
0000000000000011
0000000001010011
0000000000000110
1000000011011000
1000000000000100
0000000010000100
1000000001010101
1000000010000000
0000000010110000
1000000000010001
0000000000111001
1000000001010111
0000000001110110
1000000000101001
1000000000111011
0000000010101100
0000000001100000
0000000000110000
1000000000001101
1000000000100110
0000000000000110
0000000001110100
1000000000110000
0000000010110011
0000000000000001
0000000010111110
1000000000110000
0000000001010110
0000000010100111
0000000010000000
1000000001111110
1000000010111001
1000000010001100
0000000010000111
0000000011110100
0000000001000100
1000000001001111
1000000000001010
1000000000001001
0000000001000000
0000000000100101
0000000001101010
0000000000001111
1000000010001100
0000000011001111
0000000001010110
1000000001101101
0000000000110111
1000000000011010
0000000001001001
1000000001000000
1000000011000100
1000000001100000
1000000010011101
1000000000101100
1000000000111000
0000000001011100
1000000001110001
1000000001101110
0000000011000001
1000000001101010
0000000000011011
1000000011110011
1000000010010001
0000000010100010
0000000001010010
1000000001010001
1000000010011111
1000000000010101
0000000001110010
1000000001101011
1000000010001000
0000000101011011
1000000000101111
0000000001010010
1000000010100100
1000000000010011
0000000000001011
1000000000011100
0000000011001101
1000000000100101
0000000001000101
0000000000000100
0000000000100100
1000000001000110
0000000001110011
0000000001111010
0000000011110000
1000000000100101
0000000100101010
1000000001111001
0000000000110011
0000000010101101
0000000000101001
1000000011001001
1000000011001011
1000000010000010
0000000000101001
0000000011011110
0000000000011010
1000000001000000
0000000000101110
1000000000011111
0000000000111001
0000000000000101
0000000001101011
0000000010001110
1000000010110111
0000000001001101
0000000001000100
1000000010011010
1000000000001101
0000000001101000
0000000001000011
0000000000001011
1000000011101101
1000000000111010
1000000001110010
1000000011011001
1000000000011011
0000000010001001
1000000000110110
1000000010010001
0000000001000100
1000000001011000
0000000000000111
1000000000100101
1000000010111111
0000000000011000
0000000010000110
1000000000010001
1000000001110110
1000000010001101
0000000010000011
0000000000000011
1000000011000110
0000000011010111
1000000001100110
0000000000011000
1000000001110111
0000000010101111
0000000000100100
0000000000010011
0000000100001011
1000000000001111
0000000000000110
1000000010001001
0000000000001101
1000000001001101
0000000011100001
1000000000100001
0000000011000111
1000000001011001
0000000100110101
1000000001010000
1000000001101000
0000000011100111
0000000010000010
1000000011000011
1000000010111000
1000000001000110
0000000001000001
0000000101000010
1000000000000010
1000000000101110
0000000001101100
1000000000110000
0000000001000011
1000000000001000
0000000000110001
0000000001101100
1000000011011011
0000000001100011
0000000010000110
1000000001101001
1000000001000111
1000000000000001
0000000000010000
1000000011001100
1000000010110100
0000000001000110
1000000010100011
1000000011010110
1000000001111100
0000000010001010
1000000000010011
0000000001101100
0000000011101000
1000000001111011
0000000010010100
1000000011000111
1000000000110011
0000000010111001
0000000100100100
0000000001010011
1000000000110011
1000000010101100
0000000001100111
0000000010011001
1000000000110101
1000000000010111
0000000000011110
0000000010001111
0000000001011001
0000000001110001
1000000000010001
1000000001110100
0000000011000101
1000000001101000
1000000011001110
0000000001100000
0000000001001001
1000000001001011
0000000011001010
1000000000001101
0000000010100001
1000000000111000
0000000001001000
1000000010101100
0000000010000010
1000000000001000
1000000000011100
1000000010101111
1000000010100110
1000000000110010
1000000001101110
0000000100001010
1000000001001010
1000000000110110
0000000001000000
1000000000101101
0000000000010110
0000000011000011
0000000000001011
0000000001001101
1000000011111000
1000000010010011
1000000000001110
1000000010101001
1000000001011010
0000000010100111
1000000000011100
1000000100110111
1000000011011011
0000000000001001
1000000000001111
1000000010101100
0000000000100001
0000000011010000
1000000010100001
1000000010000011
0000000010100000
1000000001001001
0000000001001101
1000000001000110
1000000011001100
1000000001000001
0000000011001001
0000000010110111
0000000001001010
1000000011010100
0000000001111001
0000000001100110
1000000000111100
0000000001111000
0000000001101111
0000000011101110
0000000001100101
0000000010010100
0000000000001110
1000000000000101
0000000011100010
1000000000000010
1000000001010111
1000000000100110
0000000010111010
0000000001011001
0000000011000100
0000000010001100
0000000001000100
0000000000100110
0000000011011110
1000000010100101
0000000001010010
0000000010110011
0000000000111011
1000000100000000
1000000100100000
0000000000100001
0000000000100111
0000000100010011
0000000001110100
1000000000000011
0000000010000011
1000000000110010
1000000000100110
1000000000110011
1000000000010000
1000000001101001
1000000001101110
0000000000100001
1000000001000101
1000000101000011
1000000011000110
0000000011011101
0000000010110111
1000000011111100
1000000011011100
1000000010001101
1000000000111101
1000000010001010
1000000001101011
0000000010111111
1000000001000111
1000000001010001
0000000011011010
1000000000010101
1000000001001100
1000000000010100
1000000010001100
0000000000001010
0000000001000011
0000000010110010
0000000010011100
1000000011011010
0000000001011001
0000000001011111
1000000000000001
0000000010000010
0000000010011010
0000000011101101
0000000001011110
0000000011010001
1000000000010110
0000000000111001
0000000010111011
0000000000001001
1000000010100001
1000000000100010
0000000010110110
0000000010110101
0000000000111011
0000000011001000
0000000000001101
0000000000000000
0000000011101101
1000000011011111
0000000000000101
0000000011000000
0000000001100000
1000000011010011
1000000100101101
1000000000001111
1000000000111000
0000000011111111
0000000000111001
0000000001001010
0000000010110011
1000000000011001
1000000000010101
1000000001011111
0000000000101000
1000000001101111
1000000001101100
0000000000110011
1000000001000110
1000000101000001
1000000001101100
0000000010110001
0000000001001100
1000000011000000
1000000100100111
1000000011001111
1000000000100111
0000000001010010
1000000010000101
0000000001010101
1000000001011111
1000000011011001
0000000011000010
0000000000111100
1000000011001111
0000000010010001
1000000011110101
1000000000110100
1000000001011100
0000000000110111
0000000000100110
1000000001001111
0000000001000010
1000000001010000
1000000000011001
0000000101110101
0000000001000110
0000000010001111
1000000000001100
0000000000010001
1000000000000101
0000000001110011
0000000110101001
0000000010011011
1000000000010111
1000000010001001
0000000000110000
0000000011101001
0000000000110000
0000000000111110
0000000001011101
0000000010010111
0000000101000100
1000000011111001
1000000010010011
0000000100010011
0000000000110010
1000000010100101
1000000100100001
1000000000010000
1000000000100110
1000000000000100
0000000011001101
0000000011101111
0000000100111011
1000000100111100
1000000000111101
1000000000111100
0000000010000001
0000000001001010
1000000000011011
0000000011111100
0000000000101001
1000000011101011
1000000010100001
1000000001000001
0000000011000000
1000000001100100
1000000010101010
1000000010000111
1000000100100001
1000000001010101
1000000001111110
1000000000101110
0000000010001100
1000000000110101
0000000010000000
0000000000011000
0000000010110000
0000000000111000
0000000000001100
0000000011010011
0000000001011100
1000000000111110
1000000001001100
1000000010001111
0000000001000110
1000000000110110
1000000010101010
0000000011011010
1000000011001010
0000000001000001
1000000000110111
0000000000011011
0000000000100011
1000000001011100
0000000100011111
1000000000110110
1000000010101011
0000000001100001
1000000000101000
0000000000010110
0000000011001101
1000000000100100
0000000001001001
0000000001111010
0000000101010111
1000000010111010
0000000010001101
0000000001010011
1000000001110000
1000000100010101
1000000011000001
1000000010100000
1000000001011101
0000000010000001
1000000000110101
1000000001110011
0000000001011100
1000000001100101
1000000000110001
0000000010101100
0000000001110000
0000000001100110
1000000000001000
1000000000100110
0000000001110110
1000000001101110
0000000000001000
1000000010010101
0000000001010001
1000000010011111
1000000010101100
0000000000000110
1000000100000101
0000000000100001
1000000010111101
1000000000100111
0000000010111100
1000000001001010
0000000001100001
0000000011101111
0000000010001101
1000000010000110
1000000010101000
0000000010011000
0000000001101010
1000000011110011
0000000000010101
1000000000101111
0000000001110100
1000000010001000
1000000001010011
0000000010010001
1000000011011100
0000000010001111
1000000010101100
1000000000111000
0000000000111110
1000000001111101
0000000000101110
1000000010011011
1000000001001111
0000000010010110
1000000000101011
0000000000101011
0000000011101000
1000000001010101
0000000010110000
0000000000011010
0000000011100001
1000000001011111
0000000001101001
0000000001100001
1000000001010000
1000000010011001
1000000001100001
1000000010010000
1000000010001001
0000000010010110
1000000001110101
1000000101010011
0000000000110000
1000000001101100
1000000001000010
0000000010110110
0000000010011001
0000000001100111
1000000010001101
1000000010101111
0000000100110101
1000000001010000
0000000000010100
1000000001110010
1000000001111001
1000000000001110
1000000011000011
1000000001100101
1000000010101000
0000000000010111
1000000010101111
0000000000101001
0000000000011000
1000000000110111
0000000010100011
0000000000001001
0000000001010111
1000000001001011
1000000000110000
0000000011001011
0000000001001011
1000000001000111
1000000000110110
1000000001110001
0000000001000110
1000000001100000
1000000001111100
0000000011000111
1000000010011100
0000000010010000
1000000010001111
1000000000111011
1000000000101101
1000000000111011
0000000011000010
1000000001010001
1000000001011110
1000000000010100
1000000001001110
1000000000100101
0000000001010001
0000000000010001
0000000011100000
0000000001110111
0000000010011001
1000000010000001
0000000001100100
0000000001011100
1000000001011110
1000000010001110
1000000001110110
1000000010111010
1000000001000001
0000000001111011
1000000010001100
1000000011101011
0000000011100011
1000000000001000
0000000000001001
0000000010010111
0000000001101110
0000000010111110
1000000001110010
1000000010010010
0000000010010111
1000000010011110
1000000001011010
1000000000111110
1000000000100100
0000000000001101
1000000001111010
1000000000011011
1000000001111000
0000000000010000
1000000010100000
0000000000110010
0000000010000100
1000000001000100
0000000000011110
1000000000101100
0000000001011110
1000000001000010
1000000010011011
0000000010000011
0000000010001110
1000000000110001
1000000000100011
1000000010001100
0000000010011001
1000000001100001
1000000001101011
0000000001100110
1000000001100000
0000000001010010
1000000000101001
1000000000101011
1000000000001011
1000000001110011
0000000001101000
1000000001110110
1000000001000011
0000000001100111
0000000000000001
1000000000101001
0000000001001000
1000000000111111
0000000001111111
0000000010111001
0000000010011101
1000000000110000
0000000010000100
1000000000010011
1000000001011000
1000000000010000
1000000001000100
1000000001000000
1000000000001001
0000000010001110
1000000001110011
1000000011100111
0000000000111111
1000000010001001
1000000001011110
0000000010011011
0000000010101110
0000000001011010
1000000000110001
1000000000010101
0000000010110010
1000000001011001
1000000001000111
1000000001101100
1000000000001100
1000000001111111
1000000001110000
1000000010110100
1000000010001100
1000000010000100
1000000001001010
0000000001111100
0000000001010101
1000000001100001
0000000001010110
1000000010010000
0000000000010011
1000000001010100
1000000010001000
0000000011000011
0000000010000101
0000000010111000
1000000001000010
1000000001001111
0000000010000000
1000000000101001
1000000010110000
0000000010110100
1000000010010011
0000000010001011
0000000000110000
0000000001110011
1000000000111010
1000000010001010
0000000000001001
1000000010111000
1000000001010101
0000000001110000
0000000000110000
0000000001010100
0000000010101011
1000000000100000
0000000010011000
0000000010001100
0000000001001111
1000000001100000
0000000001000111
0000000010001101
1000000001101101
1000000010010111
1000000001110101
1000000010100001
1000000000001110
0000000000110101
1000000000111111
1000000010101010
0000000001010011
1000000001001000
1000000001111011
0000000011100110
0000000000110111
0000000010001011
1000000001001100
0000000000100110
0000000010110010
1000000001001100
1000000001100110
1000000001010100
0000000000111100
1000000001100101
1000000001110111
1000000011100111
1000000000110111
1000000000000100
1000000010000111
0000000001100011
0000000010100011
1000000000111001
0000000001111011
1000000001100111
0000000001000000
1000000000100000
1000000001001100
0000000000111111
0000000010000010
0000000001101011
1000000001001111
1000000001100001
0000000001110001
1000000001110010
1000000001011010
0000000000111001
1000000000100110
0000000001000001
1000000000001011
0000000010101001
0000000000010010
1000000000010000
0000000000010001
1000000010000110
1000000011011101
0000000000101100
0000000000000111
0000000001101010
0000000000111000
0000000000011101
0000000001011110
0000000001001111
0000000001100111
1000000001100010
0000000000101111
0000000010010111
1000000000001100
1000000000110000
1000000001010000
1000000010101101
1000000000010100
0000000001110111
0000000001101001
1000000000101111
0000000001010010
0000000001001100
1000000001000010
0000000000110101
0000000001001000
0000000001011001
1000000011011100
0000000000000010
0000000000110101
1000000001101100
1000000000011001
1000000000010100
0000000001011111
1000000000010101
1000000000110001
0000000000111111
1000000000110110
1000000001010001
0000000001010011
0000000001110011
1000000000011010
1000000000010111
1000000000111011
0000000000110001
1000000000100000
0000000000100001
0000000000000010
1000000000010000
1000000000110110
1000000001010011
1000000000001000
1000000000011001
0000000000101100
1000000001000000
0000000001010011
1000000000011001
1000000000110010
0000000000110100
0000000001100101
1000000001000100
1000000001001000
1000000000111001
1000000000011111
1000000000011100
1000000000110011
0000000000100001
1000000000000110
1000000000011000
1000000000011010
0000000010001010
0000000000101101
1000000000001101
1000000001011010
0000000000101111
1000000001000011
0000000001101010
0000000001001110
0000000000010110
0000000000100000
0000000000110001
1000000000001110
1000000001001111
0000000000001011
1000000000101110
0000000000010100
0000000000101111
1000000000101101
0000000000000010
0000000001100011
0000000001010101
0000000001000110
1000000001000011
0000000000010111
0000000000011100
0000000000001110
1000000000100010
0000000000000010
0000000000011111
1000000000101000
1000000000011101
1000000000011000
1000000000110101
1000000000110110
0000000001000110
1000000000011010
1000000001011010
1000000000101100
1000000001011011
0000000000110110
1000000001110000
0000000000010101
0000000000101111
0000000000001110
1000000000011010
0000000000011010
1000000001001010
1000000001101000
1000000001011110
0000000000010110
0000000000001101
1000000000000000
0000000000001010
0000000000011101
0000000000010001
1000000000100001
0000000001010001
1000000000000110
1000000001010000
0000000000000111
1000000001110010
1000000000010001
1000000000101100
0000000001110010
1000000000110000
0000000000110101
0000000000000010
0000000000101100
1000000000100100
1000000001100110
0000000000001010
1000000001110001
1000000000001100
1000000000011001
1000000000011110
1000000000100100
1000000000100100
0000000000100001
0000000000001111
1000000000110010
1000000000110010
0000000001001000
0000000000001110
1000000000000000
0000000000000111
0000000001000101
1000000001000111
0000000000111010
0000000000010110
0000000000010110
1000000000000111
0000000000010111
0000000000110001
1000000010001000
0000000000001110
1000000000000001
1000000000001001
0000000000000100
0000000001000010
1000000000001010
1000000000001100
1000000000101110
1000000001110101
1000000000010010
1000000001001101
1000000000111110
0000000000011001
0000000010111011
0000000000011101
0000000000101101
0000000001010100
0000000000101001
1000000000111010
0000000000011000
0000000001000011
1000000000101010
0000000000100100
1000000001111011
0000000000111000
1000000000010010
0000000000101111
1000000001100001
1000000000001011
0000000000111001
1000000000000101
0000000001000100
1000000000010011
0000000000110011
0000000001011000
0000000000000010
1000000000101101
1000000000111111
1000000000010001
1000000001000010
1000000000010000
1000000000101011
1000000000000000
0000000000101010
1000000000010011
1000000000000011
0000000000110000
1000000000001110
1000000000101110
1000000000011111
0000000001010101
1000000001000000
0000000000110010
1000000000100000
1000000000011101
0000000000100101
1000000000010011
0000000000001111
0000000001111011
1000000000011110
1000000000010010
1000000000111100
0000000000011111
1000000000010100
0000000000011100
1000000000010111
0000000010000001
1000000000000011
0000000000110010
1000000000010100
0000000000111000
1000000001100100
0000000000001010
0000000001001110
0000000000001110
0000000000010011
1000000001000111
1000000001010110
0000000001010111
1000000000100000
0000000000001010
0000000000101110
0000000000110100
0000000000010000
1000000000011010
0000000000101110
1000000000110010
1000000000110111
1000000000010111
0000000000001101
1000000000011111
1000000000010001
1000000000111010
0000000000001010
1000000001001110
0000000001000111
1000000000010000
0000000001000010
0000000000000010
1000000000011101
1000000000111100
1000000000010111
1000000000010110
0000000001110101
1000000000011101
0000000001100100
0000000000010110
1000000000001011
0000000001000111
1000000000111110
0000000000000110
0000000000111010
0000000000010111
0000000000011111
1000000000001100
0000000000001111
1000000001001100
0000000000101011
0000000001010100
1000000000001000
1000000000100110
1000000000010110
1000000001001111
1000000001010101
1000000000100111
0000000001110110
0000000001101010
1000000000000011
0000000000100011
1000000000110001
1000000000000100
0000000001010001
1000000010011001
1000000000001001
0000000000010010
0000000000100101
1000000001000000
0000000000111000
0000000000011111
1000000000001100
0000000000011000
1000000000011001
1000000000000010
1000000010000011
0000000000010111
0000000000000100
1000000001101010
1000000000101111
1000000001011110
0000000000000011
1000000000010011
0000000000000010
0000000001001001
0000000000010101
0000000001001011
0000000000111101
0000000001011110
0000000000101101
0000000000100010
1000000000100110
0000000001000110
0000000000011010
0000000000011000
1000000001010100
1000000000000010
0000000000100011
1000000001010110
0000000000011001
1000000000011011
1000000001100001
0000000000000011
0000000000110001
1000000000001001
0000000001000001
1000000000000000
0000000000010111
0000000000111001
0000000000010100
1000000000010000
1000000001000101
0000000001101100
0000000000011011
0000000000010010
0000000000001000
1000000001000001
0000000000100101
0000000000101111
0000000000110000
1000000001110010
0000000000111110
0000000000000011
0000000000010111
1000000000100100
1000000001011000
1000000000011110
1000000000011100
0000000000001000
1000000000111011
0000000000110110
0000000000000011
0000000000001011
0000000000101100
1000000000010000
1000000000111001
1000000000001000
1000000000010100
1000000000001101
1000000000111001
1000000001010000
0000000000010111
0000000000011010
0000000000001001
0000000000101011
0000000000000010
1000000000110110
0000000000110011
0000000000011111
0000000001001101
1000000000111010
0000000000010011
1000000001011100
0000000000000010
0000000000011111
0000000001100000
0000000000001111
0000000000110010
1000000000110001
1000000000101011
1000000000001010
1000000000011000
0000000000100001
0000000001001110
1000000000010111
1000000001010000
1000000000011010
0000000000001101
0000000000101000
1000000000101001
1000000000100000
1000000000001000
0000000000100000
0000000000001111
1000000000011010
1000000000101110
1000000001000001
1000000000101000
1000000000111101
0000000000101101
0000000000001111
0000000001000001
1000000000001101
1000000000101111
1000000000011111
0000000000010011
0000000000001010
1000000001100101
1000000001000110
1000000000101010
1000000001010101
0000000000101110
0000000001010000
0000000000100011
0000000000001001
0000000000101001
0000000000101011
1000000000000001
0000000000000110
1000000000010111
1000000000001100
0000000000110010
0000000000110001
0000000000010110
1000000000100101
0000000000100101
1000000001111110
0000000001001101
1000000000000010
0000000000010010
1000000001000001
0000000000011010
1000000000101000
1000000000100111
1000000001101010
0000000000111100
1000000000001000
0000000000110111
0000000000001001
0000000000110100
0000000000101110
0000000000010001
1000000001010101
0000000000100000
1000000000000111
0000000000001010
0000000000010000
0000000001000111
1000000001000101
1000000000101000
1000000010000001
0000000010001001
0000000000100100
1000000001001111
1000000000110011
0000000000011001
1000000000101001
0000000000101101
0000000000111111
1000000000000100
0000000001100000
0000000000110110
1000000001000001
1000000001010110
1000000000100011
0000000000110010
1000000000111101
1000000001011101
0000000000011110
0000000000000011
1000000010010111
1000000001011111
1000000001010001
0000000001111010
0000000000101001
0000000010100110
0000000000110101
1000000001110010
1000000000100011
0000000000111111
1000000001110001
1000000001010100
1000000000110110
1000000000000011
1000000010010101
0000000000111010
0000000010100111
1000000000100100
1000000001001001
1000000000000010
0000000000010101
1000000000101100
0000000001110000
0000000010101011
0000000000000101
1000000010010000
0000000010110000
0000000000110001
1000000000010000
1000000000011000
0000000001100100
0000000010001011
1000000010110010
1000000000101100
0000000001110100
0000000000011101
0000000000111010
0000000010100010
1000000001100110
0000000010001111
1000000001110101
0000000001011111
0000000000101010
0000000000011101
1000000001110110
1000000001101110
1000000001110011
0000000011100100
0000000000110000
0000000000110110
1000000000001110
0000000001000110
1000000000101001
0000000001110101
1000000001101010
0000000001010110
1000000001000111
1000000000110101
0000000011001011
0000000100000010
1000000001101110
1000000001011010
0000000001000010
0000000001100100
1000000001011111
1000000001100110
1000000001110111
1000000000000000
0000000000000111
1000000000000100
0000000010001111
1000000010011011
0000000001010101
0000000010100010
1000000001100010
1000000001111111
0000000000111101
1000000001111110
1000000000100101
0000000010001101
0000000001100010
1000000001101101
1000000010011011
1000000000001110
1000000010010000
1000000001111110
0000000001010101
0000000001100010
1000000001011101
1000000000110011
0000000001010111
0000000000110110
1000000010000011
0000000000010011
0000000001011010
0000000001111000
1000000001001001
1000000001101101
0000000001010010
0000000000111011
1000000000011101
0000000010010111
1000000000110111
0000000010011111
1000000001110101
0000000010011000
0000000001100000
0000000001100011
1000000001011100
1000000010001001
1000000011010011
0000000000111101
0000000001110000
0000000001100010
1000000000000001
0000000010100010
1000000001000100
0000000001111001
1000000010010010
0000000001111001
1000000000011001
1000000010000011
0000000000101110
0000000100110111
1000000001001101
1000000010010001
0000000000101010
0000000011000110
1000000000011001
1000000010001001
1000000001100100
1000000010001100
1000000000101011
1000000000111111
1000000000010100
0000000000110001
1000000000001001
0000000010000111
0000000001011010
0000000001101001
1000000000100111
1000000000100001
0000000000100110
0000000001111101
1000000000111110
0000000000000011
1000000000001110
0000000000001101
1000000010000000
1000000000101011
0000000001001111
0000000000000000
0000000001011000
1000000000111000
1000000000110011
0000000001110110
1000000001001000
0000000000101101
1000000000111000
1000000000110000
0000000001001000
0000000000010001
0000000000111001
1000000000010000
1000000001110101
0000000000101101
1000000000001111
0000000001101100
1000000001000101
0000000000011111
0000000001001100
1000000001010010
1000000001001001
1000000000101101
1000000001010001
1000000000110110
0000000001000111
0000000000001100
1000000000001010
0000000001100111
1000000001011101
1000000000011011
0000000010111000
0000000000100011
1000000000000011
1000000000010011
0000000001001111
0000000000011010
1000000001000110
1000000000011011
1000000000100011
1000000000101100
1000000010111101
1000000010001010
1000000011011011
1000000011000100
1000000010000000
1000000001110001
0000000000100000
0000000010001010
1000000000001011
0000000011010101
1000000000100001
0000000011110100
1000000000101101
1000000010110011
0000000100001011
0000000010111111
1000000010101111
1000000001000010
1000000010001001
0000000001110110
1000000001101000
1000000011011011
0000000100000010
1000000010101001
0000000011011111
0000000000101011
1000000000110010
0000000000101110
1000000000110110
1000000000001010
1000000010000010
1000000010001100
0000000000111001
0000000000001100
0000000000001100
0000000001110000
0000000000011001
0000000011100000
0000000010100001
0000000010000000
1000000010110000
0000000001000001
0000000010001111
1000000000111101
1000000011001010
1000000010111000
1000000010010001
1000000000110110
0000000010110001
0000000000101010
1000000001000111
0000000010000101
1000000001100100
1000000001110101
0000000001101011
0000000011011000
0000000010101001
1000000011110010
0000000000100011
0000000010001000
1000000001100001
1000000001110001
1000000001100100
1000000000001100
1000000100001011
1000000010100001
1000000011000000
1000000011110110
1000000000011010
1000000010001111
0000000001011000
0000000000010001
1000000000001001
0000000011001010
1000000010011010
1000000000000111
1000000000011010
1000000010101011
0000000011010000
0000000011110000
1000000000000001
0000000000001011
1000000010011011
0000000010100001
1000000001011111
1000000010100100
0000000101101001
1000000010001110
0000000011011010
1000000000110011
1000000000111010
0000000000010001
1000000001001010
0000000000000000
1000000000010101
1000000011100001
0000000000001011
0000000000000001
0000000001010010
0000000011011110
1000000000100110
0000000010011101
0000000010110111
0000000011100010
1000000011100010
1000000000011000
0000000100111101
1000000001001011
1000000100101100
1000000011100000
1000000100010100
1000000000001010
0000000010100010
1000000000011010
1000000000011001
0000000011011001
1000000001101010
1000000000000001
0000000010101011
0000000000100000
0000000010000110
1000000001110101
0000000001000010
0000000001010101
1000000010101011
1000000000001101
1000000000100110
0000000000101110
1000000100011111
1000000100011011
1000000011100011
1000000010111010
0000000010000101
1000000001111010
1000000000011010
0000000001010010
1000000010011011
0000000011010111
0000000010011000
1000000001000011
0000000011101101
1000000100001000
0000000010110110
0000000010000100
0000000000101011
1000000010100010
1000000100110010
0000000001111101
1000000001011110
1000000000101110
0000000011101000
1000000001111111
0000000000101110
1000000000000101
0000000000100100
1000000000000100
1000000010011111
1000000000010001
0000000000100111
1000000101001110
1000000000010100
0000000000110010
0000000001010000
0000000010000110
1000000010000001
0000000000111110
0000000101001010
0000000011110000
1000000010110001
1000000000101001
0000000101010101
1000000000100100
1000000100010001
1000000100100100
1000000010111101
0000000010001001
1000000000111011
0000000010110111
0000000000010011
0000000101110010
1000000011001010
0000000000011111
0000000011000100
0000000000010011
0000000001010001
1000000000010110
0000000001001001
0000000000010101
1000000010011010
1000000001111100
1000000001010101
0000000001010011
1000000110101010
1000000100010110
1000000100101110
1000000010111011
0000000001001100
1000000010100001
1000000001100111
0000000010011011
1000000010000111
0000000011001111
0000000010001101
0000000000010011
0000000010000010
1000000100100010
0000000110001101
0000000001011011
0000000001011011
1000000100001011
1000000011111001
0000000010010001
1000000001001010
1000000000101011
0000000100010110
1000000001000011
0000000011101111
0000000001011010
0000000001101101
0000000000101101
1000000010100110
1000000000111110
1000000000111010
1000000101001001
0000000011000011
0000000000100100
0000000010010010
0000000001011010
1000000010110000
0000000000111001
0000000111000101
0000000101001000
1000000011010101
0000000001110100
0000000101101101
1000000000111100
1000000011110111
1000000100111000
1000000100011001
1000000000000011
0000000001000100
0000000011001001
0000000001000111
0000000011111101
1000000100011111
0000000001001010
0000000011111000
0000000000000010
0000000000101101
1000000000100000
0000000000111000
0000000001010110
1000000100100101
1000000001001000
1000000010100001
0000000010111110
1000000101100110
1000000101110110
1000000110011011
1000000010111010
0000000011011100
1000000011001111
1000000011000000
0000000100001000
1000000100010110
0000000100101100
0000000100110000
1000000000000010
0000000001110100
1000000100100010
0000000011011010
0000000011101011
0000000000000111
1000000100110001
1000000001011011
0000000010010111
1000000000011111
0000000000001111
0000000110100001
1000000010101110
0000000001100110
1000000000010111
1000000000011100
0000000000001111
1000000010001111
1000000011100110
1000000000000000
1000000110001110
0000000000010110
1000000000100010
0000000011011001
0000000001001110
1000000001110000
1000000000001110
0000000101010011
0000000110100100
1000000100100000
0000000001001110
0000000001111011
1000000010101010
1000000100001010
1000000101001100
1000000100011011
1000000001010100
1000000000000000
0000000001110001
0000000001001010
0000000101110010
1000000101010011
1000000010011101
0000000010111011
0000000000011111
0000000001101011
0000000000110101
0000000001000111
0000000001000111
1000000010110010
1000000001111100
1000000010111000
0000000000110100
1000000101001101
1000000011101110
1000000111000011
1000000011111110
0000000010011100
1000000011000100
1000000000010101
0000000001101100
1000000100110111
0000000100001010
0000000010011100
1000000000010100
0000000010101111
1000000101010000
0000000101000000
0000000011101010
0000000000001001
1000000011001110
1000000010101001
0000000011110101
1000000000010100
1000000011010101
0000000101101010
1000000001000110
1000000000011011
0000000010010011
1000000000011000
1000000000110111
1000000011110100
1000000010000000
0000000000000101
1000000011101000
1000000000001000
0000000001010110
0000000010100101
0000000001100110
1000000000011011
1000000000011111
0000000110100110
0000000110001101
1000000100001100
0000000001000101
0000000001101100
1000000000001011
1000000101011001
1000000101111010
1000000100001011
1000000011100010
0000000011000100
0000000000100101
0000000001000010
0000000100010000
1000000010101011
1000000000110101
0000000010110001
0000000010110100
0000000001011001
0000000000100001
0000000010100111
0000000001011010
1000000011110000
1000000001010101
1000000001011110
0000000010000010
1000000110000111
1000000100001111
1000000100011101
1000000001010100
0000000010011111
1000000010001000
1000000001110101
1000000000001001
1000000010100111
0000000010010110
0000000011001101
1000000000110010
0000000011010010
1000000011001001
0000000100001000
0000000010000000
0000000001001101
1000000001011011
1000000000001111
0000000101010011
0000000010100111
1000000000001110
0000000001101110
0000000010111110
1000000000110000
0000000011111110
0000000011111101
0000000000010111
0000000000000100
1000000010101010
0000000000000001
1000000001101110
1000000000100111
0000000011001010
0000000001111100
1000000001001100
1000000001111110
1000000011110010
0000000010100001
0000000011100110
1000000011000111
0000000001100110
0000000000101111
1000000000001101
1000000010001010
1000000011000111
1000000100001100
1000000010101100
0000000010110110
0000000010011011
0000000001001010
0000000011011110
1000000001101111
1000000001010000
0000000001101100
1000000000111010
0000000000000100
0000000000110100
1000000000000011
1000000000110110
1000000011010010
1000000010001001
0000000001000000
0000000001100011
1000000101011111
1000000001101110
1000000010001011
0000000000000001
1000000000101101
1000000100101001
1000000010000001
0000000000001111
1000000010010001
0000000010001010
0000000001100110
0000000011101101
0000000000101011
1000000001001100
0000000011110011
0000000011000011
0000000000101000
0000000000101000
0000000000011001
0000000011111110
0000000001111110
1000000000111010
0000000001001110
0000000001010010
0000000000110000
0000000001001010
0000000010100011
1000000000011100
1000000000010000
1000000001010011
0000000000001110
1000000001101101
0000000000101001
0000000011000011
0000000000010011
1000000001000111
1000000000101110
1000000000101101
0000000010101100
0000000011011101
1000000100110111
0000000001000011
0000000000000010
1000000000010001
1000000010101100
1000000000110110
1000000100101111
1000000011010011
0000000010010100
0000000000000000
0000000000001010
0000000001111000
1000000010000011
1000000010011110
0000000001100011
0000000001000101
0000000001010000
0000000000110000
1000000001100000
0000000000010100
1000000011100000
1000000000001011
0000000001101110
1000000000110110
1000000110101001
1000000010010010
1000000010011000
1000000001111110
1000000000101100
1000000010110111
1000000000100000
0000000000101001
0000000000000010
0000000011011011
1000000001000111
0000000011001110
0000000000010111
1000000011000010
0000000100010101
0000000110001110
0000000001001100
1000000001110000
1000000001010010
0000000011000000
0000000010110110
1000000010100011
1000000001011011
1000000000100101
0000000100001011
0000000010001110
0000000010010110
0000000000100010
1000000001110101
0000000100000010
1000000010011110
1000000011011010
0000000001111010
0000000100101010
1000000001101011
0000000100001001
0000000000001111
0000000001110100
1000000010011100
0000000000101000
1000000100011011
0000000011011001
1000000001001111
0000000000000000
1000000011001100
1000000011101100
1000000010111100
1000000110000010
0000000011100010
1000000000111010
1000000001100010
0000000001010011
0000000000110010
1000000010011101
0000000010001001
0000000000110110
1000000000010101
1000000001110101
1000000101011010
1000000000000000
1000000011000110
1000000011111001
0000000001011111
1000000011001110
1000000100110011
1000000010101101
1000000000010101
1000000001001101
1000000000001001
1000000010001010
1000000001011010
0000000010110011
1000000000101011
0000000011100110
0000000001000110
0000000001101101
1000000000000110
1000000100000011
0000000010101111
0000000011000100
0000000010010100
1000000000111001
1000000000010101
0000000010111001
0000000010110001
1000000010010110
1000000000101100
0000000000101000
0000000001111101
0000000000001101
0000000010011111
0000000000110100
1000000000110001
0000000100010000
1000000010011010
1000000011101110
0000000001100000
0000000000111100
1000000000110110
0000000000111110
1000000000010001
0000000000111100
0000000010001011
0000000001101110
1000000110011101
0000000010100010
1000000000011011
1000000001000011
1000000010110101
1000000001101010
1000000010010011
1000000100011101
0000000010110101
1000000000001111
0000000010000000
0000000001001101
0000000000111100
1000000010110110
0000000011110110
0000000000110100
0000000000000111
1000000010000111
1000000011001011
1000000000001010
1000000100110011
1000000001011100
0000000000011010
1000000010000100
1000000011000101
1000000010001011
1000000100110010
1000000010010101
1000000000010101
1000000011101000
0000000000001000
0000000001100111
1000000010000100
0000000000110011
1000000001000001
0000000001011000
1000000010000000
1000000011000101
1000000001010100
0000000100111001
0000000010111010
1000000001010100
1000000011000010
0000000001111110
0000000000010100
1000000011001010
1000000000101111
1000000000100111
0000000100011110
0000000000100100
0000000000110110
1000000000111101
1000000010100100
0000000101001000
1000000010110000
1000000010011000
0000000011001110
0000000010001111
1000000000100001
0000000011101001
1000000001001111
0000000010100010
1000000001110101
0000000000110011
1000000110100111
0000000001110000
0000000001010011
1000000000001101
1000000100100010
1000000100110101
1000000001110001
1000000010001000
0000000000101101
0000000001011001
0000000010101000
0000000001001100
1000000000010000
1000000010101011
0000000001100100
0000000001100110
1000000000010010
1000000010111111
1000000010000100
1000000000010011
1000000100110001
1000000010000101
0000000001000100
1000000010100101
1000000010101000
1000000010001010
1000000011011011
1000000000011100
1000000000111110
1000000001010100
0000000001000011
0000000010010101
1000000001000101
0000000000000110
1000000000000100
0000000001010101
0000000000010011
1000000001101111
1000000010101100
0000000001000000
0000000010001001
1000000001001011
1000000001011001
0000000010101101
1000000000110000
1000000010010100
1000000001000101
0000000000001111
0000000010100001
0000000000110001
0000000010001011
0000000000001011
1000000001000111
0000000100001001
1000000001001100
1000000010001000
0000000001101010
1000000000100110
0000000000011001
0000000010100001
1000000001100101
1000000000000000
1000000001001100
0000000000101011
1000000100001101
0000000000100011
1000000000001110
1000000000010100
1000000100000111
1000000001110011
0000000000110000
1000000010000001
0000000001101011
1000000001111100
0000000010110100
1000000000011000
0000000000000111
1000000001101001
0000000001010111
1000000000111111
1000000010000011
1000000000111011
1000000000110001
1000000001100101
1000000100110001
1000000000001111
0000000000101101
1000000000110100
0000000001011110
1000000010010101
1000000010110011
1000000100010011
1000000000001010
1000000010001010
0000000001001000
0000000001100100
0000000001010100
0000000001001001
1000000000111000
0000000011101011
1000000001000001
1000000001101010
1000000001010001
0000000011111001
1000000001111101
0000000000010001
0000000000101100
0000000011001100
0000000000011101
1000000011100001
1000000000110000
1000000100000100
0000000010000001
1000000001100010
1000000000101000
0000000000101000
1000000001111001
0000000010010110
1000000011011110
1000000010001111
0000000001110001
1000000001101011
1000000000100101
0000000101011010
1000000000001111
0000000011010000
0000000000110001
0000000010011111
1000000001001101
0000000001001000
1000000001000100
1000000010101100
1000000100011001
1000000001110000
1000000000100101
1000000011000111
0000000010000110
1000000010011011
0000000000100011
0000000000001111
1000000000001100
1000000100000000
0000000001100110
1000000000100110
0000000000011000
1000000010000000
1000000000101001
1000000000001011
1000000011001010
1000000000011101
0000000001100110
1000000000011101
1000000000111010
1000000001101111
1000000010001111
1000000111100111
1000000000011100
1000000010110111
1000000000110001
0000000011011111
0000000000011010
0000000000111000
1000000000001010
0000000100011101
1000000011110101
1000000010111011
0000000000100010
0000000001101100
1000000010111010
1000000011001011
0000000001100011
0000000000100011
1000000011111100
1000000010111101
0000000010010011
1000000011000001
0000000011011000
1000000010101001
1000000010001011
1000000000000111
1000000011001001
0000000010001010
1000000011111010
1000000000011111
0000000100000100
1000000010110010
1000000001111001
0000000101011010
0000000001000000
0000000100001001
1000000000011000
0000000001011000
1000000010111011
1000000000000000
0000000001100110
1000000001111101
1000000011101001
1000000010010011
1000000010011000
1000000010100001
0000000001011011
1000000011000001
0000000000000000
0000000001000111
1000000010001010
1000000010001101
0000000010101001
0000000000111011
0000000010111101
1000000001011110
0000000000100000
0000000011001010
1000000100010110
0000000010100000
1000000010111000
1000000000110011
0000000000101001
1000000000011001
1000000010110010
1000000011010001
1000000000010011
1000000000011100
1000000000011111
0000000001000100
0000000000101001
0000000000101101
1000000000001011
0000000010001001
0000000001011111
1000000011000001
0000000010011110
0000000011001111
1000000010011110
1000000100101101
1000000000100010
0000000011011000
1000000000101110
1000000011011111
0000000000010100
1000000000111000
0000000000001000
0000000000100000
1000000011100111
0000000000101111
1000000010100010
0000000000100110
1000000100101001
1000000000010101
0000000010010111
1000000001101110
1000000001110000
0000000100010101
1000000001101011
0000000010011000
1000000000000010
0000000010111111
1000000001001000
0000000000111100
1000000000110111
0000000000111101
1000000010001011
1000000011101001
1000000010010101
1000000100111111
0000000010001110
1000000010110100
1000000000110000
0000000001010010
1000000001001111
1000000000100010
0000000010101001
0000000000110101
1000000000000011
1000000000011100
1000000001011001
0000000011000110
1000000001000110
0000000010100100
1000000000110010
1000000010010010
1000000000010100
1000000010101001
1000000000000010
1000000000110001
1000000000100011
1000000001010000
1000000010011100
0000000010110101
1000000011110110
0000000011000010
0000000001111001
0000000001001011
0000000000100101
1000000010110001
0000000010010100
0000000001101011
1000000000101000
1000000010110010
1000000000101110
0000000001010001
1000000001001110
0000000010001011
0000000011011011
0000000001111111
0000000011010010
1000000001001011
1000000001111100
0000000000000010
1000000010111111
1000000000100100
0000000001001010
1000000011001001
0000000001001010
1000000100110111
0000000000101100
0000000010011001
1000000001011010
0000000001010010
0000000010010000
0000000011100011
1000000011010010
0000000011001011
0000000001010101
1000000001111011
1000000001110001
1000000011100010
1000000001111010
1000000001011001
0000000000000001
0000000000001100
1000000001010001
0000000011011111
1000000011111111
1000000010011101
0000000010100100
0000000010110010
0000000001110010
0000000010001001
1000000001010001
0000000001100010
1000000010010001
1000000000010101
1000000010011001
1000000001010001
1000000001010010
1000000010001000
1000000010100100
1000000001110011
0000000000101111
1000000010101001
1000000001001001
0000000001101101
1000000011110001
0000000010101101
0000000010011100
1000000000010111
1000000000101101
1000000100000111
0000000001000011
0000000011001011
0000000000010111
1000000100000111
1000000001000011
0000000001000001
1000000010000001
1000000001100001
0000000010100011
1000000000110001
0000000001011010
1000000000110000
1000000000101000
0000000000011001
1000000001110001
1000000001001110
0000000000010001
1000000010110100
0000000001001100
1000000010100101
0000000000100101
0000000100100111
1000000000011101
0000000000100100
0000000010110001
0000000011000110
1000000100010000
0000000010110111
0000000001100110
0000000000010101
1000000000001000
1000000100000000
1000000001101001
1000000000110111
0000000000001011
1000000000000110
1000000000111101
0000000010101011
1000000010001000
1000000001100110
0000000001000101
0000000001000101
0000000000100001
0000000000110010
1000000000101101
0000000011000111
1000000010001110
1000000000100111
1000000010110010
1000000001100101
0000000000100001
1000000010101101
1000000001101010
1000000011111111
0000000001100000
0000000001010011
0000000000111000
0000000001001101
1000000010011011
0000000000010000
0000000000110010
1000000001011110
0000000000010011
1000000001000011
1000000000000011
0000000010011100
0000000000110110
1000000000010110
1000000000101001
0000000011100111
0000000000001011
1000000000111100
0000000001011111
1000000000011010
0000000000111101
0000000001011111
0000000010000111
1000000000000100
1000000000010110
1000000000000001
1000000000000101
1000000001010001
1000000011001000
1000000001010011
0000000001010100
0000000001000001
0000000000010111
1000000010001111
0000000000000100
0000000001101111
1000000010111000
1000000000001110
0000000011100110
0000000001100100
1000000010101000
1000000100011110
1000000011000100
0000000000011011
0000000000011000
0000000001001000
0000000001011110
0000000001011011
1000000000000010
1000000000000100
1000000001011110
1000000001011100
0000000000110001
0000000000000010
0000000000101101
0000000011010010
1000000001001111
1000000001010111
1000000000101010
1000000000001000
1000000010000010
1000000010101110
1000000000111011
1000000100110011
1000000000110111
1000000001111011
1000000010001101
1000000011011100
1000000010101100
0000000001011000
0000000011010111
1000000010101110
0000000000010010
1000000000011011
0000000010111100
1000000000001001
0000000001000011
0000000010010001
1000000101000001
0000000010101010
0000000010100001
0000000001000110
0000000001001110
0000000000100010
1000000000100100
0000000001100101
0000000000011100
0000000000100010
1000000001000001
1000000000110010
0000000001110101
1000000011101001
1000000001100010
1000000001011111
0000000010010010
1000000001100110
1000000000011010
1000000000101111
0000000011010101
0000000011110100
1000000001110000
0000000011010011
0000000000010100
1000000000011110
1000000000011000
1000000010011001
1000000000111011
1000000001011000
0000000010111111
0000000001010010
1000000000100100
0000000100100111
1000000001011010
1000000010010110
1000000000111101
1000000001101110
1000000001001111
0000000010001111
1000000010111000
0000000000000110
1000000010000010
1000000011010001
1000000000111111
0000000001011100
0000000000001011
1000000011001000
1000000000111110
1000000001111011
1000000000011111
1000000000101001
1000000001110100
1000000001111100
1000000010011100
1000000000010001
0000000001101101
1000000011011000
0000000000001011
0000000000000011
1000000000101001
1000000011000111
0000000010011100
0000000010011000
1000000010110100
0000000011111111
0000000001000011
0000000010110110
1000000000111011
0000000001000110
1000000010100011
0000000001000110
0000000001100010
1000000000011100
0000000000111111
1000000000011010
0000000001010000
1000000001111110
1000000001111011
1000000001000000
0000000010100010
1000000001100011
1000000000000011
1000000010000011
0000000010101011
0000000001001010
1000000001111001
0000000010000101
1000000000010011
1000000000100011
1000000001010111
1000000010000100
0000000000010001
1000000001100010
0000000001000000
0000000010000110
0000000011001111
0000000001100101
1000000000010110
1000000010100100
1000000011110110
1000000001100101
1000000011001000
0000000000010101
1000000001011110
1000000000100011
1000000000101011
1000000010010111
0000000001011011
0000000010000101
0000000000010010
0000000001010001
1000000000100000
0000000000000100
0000000000010000
1000000000010110
0000000000010101
1000000000000011
1000000000001101
1000000000101011
1000000000001111
0000000000010010
0000000000100011
0000000000001001
0000000000000111
0000000000101010
0000000000001101
0000000000101111
0000000000110010
1000000000011111
1000000000000011
1000000000101110
0000000000111010
1000000000011101
0000000000100100
0000000000100011
1000000000000000
0000000000011000
1000000000000011
0000000001100100
0000000001101011
0000000000011111
1000000000110011
1000000000011001
1000000000001001
1000000000001100
1000000001111111
1000000000011010
1000000001000010
0000000000011001
1000000000010110
0000000000101001
1000000000110010
1000000001000001
0000000000100011
1000000000000100
1000000000101110
0000000001010100
0000000000011011
0000000001010101
1000000000000111
1000000000001000
0000000001011101
0000000001001111
1000000000011000
0000000001111100
1000000000100111
1000000000011100
1000000001001011
0000000000001001
0000000000111101
0000000000110010
0000000000111000
1000000000000001
1000000000100011
1000000000011011
1000000000110001
1000000001101110
0000000000010110
0000000000000110
0000000000000000
1000000000000100
1000000000010101
1000000000001010
0000000000100000
0000000000100100
0000000000011110
1000000000001110
0000000000011101
1000000000001010
0000000000101100
1000000001110010
0000000001011100
0000000000101111
0000000000001010
1000000000110101
0000000001011001
0000000000010111
0000000000100010
0000000000000001
0000000000100100
0000000000001110
0000000000010000
0000000000110010
1000000000001110
1000000000010000
1000000000101000
0000000001111011
1000000001110010
1000000000010110
1000000000001111
1000000000011100
1000000000000011
1000000000100000
1000000001000000
1000000000100110
1000000001000100
0000000000111010
1000000000001111
0000000000101111
0000000001000100
0000000000010000
0000000000001010
1000000000110111
1000000001001000
1000000000010101
1000000000110011
1000000000100011
1000000000100110
1000000000011011
0000000000111110
1000000000111101
0000000000011100
1000000000011010
1000000000011000
1000000001000010
1000000000011100
0000000000001011
0000000000000111
1000000000000101
0000000000110100
0000000000010100
1000000000101100
0000000000010001
0000000000010111
0000000000010001
0000000001010010
1000000000001010
0000000000001011
0000000000001111
1000000000011000
1000000000010010
0000000001010010
0000000000010011
1000000000010010
0000000001100010
0000000001011101
1000000001011100
1000000001101110
0000000000111101
1000000000001100
1000000001101110
0000000000011011
1000000001001011
0000000010000001
1000000000001000
0000000000001111
0000000001100011
0000000000010000
0000000000100011
0000000000011101
0000000000001000
1000000000010011
0000000001010011
0000000001000111
1000000001101101
0000000000111111
1000000000100001
1000000000011001
1000000000111101
0000000001011010
0000000001101111
0000000000101011
0000000000100110
1000000000001110
0000000000000111
1000000001011000
1000000001001110
0000000000100110
0000000000110000
0000000000001010
1000000000010101
1000000000101010
0000000000001111
1000000000000001
1000000000100001
0000000000011100
1000000001001100
0000000000000000
1000000000011100
0000000001011100
0000000001001000
1000000000110110
0000000000111111
0000000000010001
1000000001100000
1000000000100111
0000000000111001
1000000000010100
1000000000011100
0000000000111001
0000000000001111
1000000000000110
1000000000000101
0000000000101011
0000000000001110
1000000001011111
0000000000001111
1000000000111010
0000000000001100
1000000000100111
0000000000001101
0000000000001111
0000000000110100
0000000001011011
1000000000101110
1000000000000110
0000000001000001
1000000000011101
1000000000001011
1000000000010100
1000000001000001
0000000001101110
1000000000100100
0000000000101101
1000000001111100
0000000000110111
1000000000001000
0000000000111110
0000000000010000
0000000001111001
0000000000111100
1000000000100101
0000000000110111
1000000000010110
0000000001000101
0000000000001111
0000000000101101
0000000000111111
0000000000100011
1000000001011100
0000000001001010
0000000001010001
0000000000011100
0000000000000001
0000000000100101
1000000000100100
0000000000100110
1000000001000101
1000000000011011
0000000000001111
1000000000111110
1000000000001000
0000000000101101
1000000000000111
0000000000101000
1000000000111101
0000000000000000
1000000001000011
1000000000100011
1000000001010010
0000000000000100
0000000001000000
1000000000000001
1000000001001100
0000000000100010
0000000000010001
1000000000100100
1000000001010110
0000000000000011
0000000000101110
1000000000101101
0000000001011110
0000000001010000
0000000000101011
0000000000100000
1000000000101000
1000000000010101
1000000000010011
1000000000001110
0000000001000110
1000000000010110
0000000010100100
0000000000010010
0000000001001001
0000000000111101
0000000000111010
1000000000010000
1000000000100100
1000000001000100
0000000000110010
0000000001000001
1000000000010100
0000000000101111
1000000000110100
0000000001011011
1000000000111001
0000000000000110
0000000001001011
1000000000101000
1000000000001110
1000000001011110
0000000000011110
0000000001000100
1000000000111001
0000000001101010
0000000010100110
0000000000111010
1000000001010100
0000000000010100
1000000001000000
0000000000001110
1000000000110100
0000000000010011
0000000000001000
0000000000010000
1000000000000010
1000000001000010
1000000000010101
1000000000100011
1000000011010000
1000000001101100
1000000001011010
0000000000111100
1000000000010011
1000000000011110
0000000001001001
1000000001010001
1000000000011111
0000000011001010
1000000010101010
1000000010011010
1000000010100010
1000000001011011
0000000000101100
0000000010000100
0000000001001001
1000000001000000
1000000010110111
0000000010010000
1000000010000011
1000000011000111
0000000010010011
0000000001010010
1000000000000011
1000000001010000
0000000001100100
0000000000000010
1000000001110001
0000000000000010
0000000001011011
1000000000101001
1000000001110111
1000000010101100
0000000000100111
0000000001011010
1000000000110001
0000000010110011
0000000000110011
0000000010001110
1000000011000001
1000000000011101
0000000001100101
0000000001000111
1000000001110111
1000000011011110
1000000010000000
0000000010011010
0000000001010101
0000000010011001
0000000001011001
0000000010010011
1000000000011111
0000000001011010
0000000000111100
0000000000110010
0000000001110111
1000000010111010
0000000001010100
0000000010101010
1000000000000100
1000000010001010
0000000000010000
0000000010011011
1000000011000001
1000000000101110
1000000000001100
1000000001111011
0000000001010101
1000000000011110
0000000000101011
1000000000111100
1000000000000001
0000000010110000
1000000001000010
0000000000100011
0000000000001001
1000000001000101
0000000100000100
0000000010100011
1000000001001000
1000000000101000
1000000010000000
0000000000001110
1000000000011101
0000000000001000
0000000011100110
0000000000000110
0000000000100010
1000000001010011
1000000001001011
0000000000101010
1000000010100000
0000000010101100
0000000000101000
1000000000011010
0000000000110100
1000000000101101
1000000010011111
1000000001011111
1000000000100011
0000000011010101
0000000001011100
0000000010101111
1000000010111101
0000000010100110
0000000000110011
0000000000000111
1000000001010000
1000000000110110
1000000000011101
0000000010000000
0000000001010111
1000000000010110
1000000001110110
0000000001111011
1000000000100011
1000000000011011
1000000000001000
0000000010001111
0000000010000110
1000000001011100
0000000001011100
0000000010011011
1000000000011100
0000000000010011
1000000000100010
1000000000001010
1000000000010001
0000000010010000
0000000000001101
1000000001101101
0000000001011111
1000000001010101
1000000010010100
0000000001001100
0000000000011001
0000000000110101
0000000100100110
0000000010001000
0000000001111100
1000000010000001
0000000010110001
0000000010100010
1000000010000001
0000000000011111
1000000001010011
0000000001001011
0000000001110111
1000000001001111
0000000001101100
1000000010001101
1000000001100100
0000000010000001
1000000000001010
0000000000011011
1000000000010001
0000000001000000
1000000010111110
0000000000001101
0000000001001011
0000000000000100
0000000000011111
1000000000001111
1000000000100011
1000000001110000
0000000001111111
0000000000101101
1000000000111011
0000000010000101
1000000001110000
1000000001111010
0000000001111100
1000000011001111
1000000010001101
1000000011000001
1000000001000101
1000000001110010
1000000000000010
0000000000100100
1000000000111110
1000000100010000
0000000011011010
0000000001110100
0000000001101110
0000000010111000
1000000010001000
0000000010000100
0000000001111110
0000000001110110
1000000001101010
1000000001001010
1000000100110110
0000000000101100
1000000011011001
1000000001000111
0000000010000011
1000000010101001
1000000011001101
0000000000000110
1000000000000100
0000000001000011
0000000100001010
0000000001111001
0000000011000111
1000000010101001
0000000100000111
0000000001010111
1000000001011101
0000000010011010
1000000001100100
0000000010110011
0000000011000100
1000000000110001
0000000010010011
1000000001100110
1000000000010011
0000000000111110
1000000000011011
1000000000001001
0000000000001100
1000000001000001
1000000000100110
1000000001010000
1000000000110100
0000000010001100
0000000010010001
1000000000100000
1000000000110110
1000000010100010
0000000010001000
0000000000101001
1000000000111111
0000000000101100
1000000000110001
1000000000110011
1000000001000100
1000000101000000
1000000000111001
1000000011010000
1000000001001111
1000000000101010
0000000001001100
0000000010010000
1000000000111000
1000000001010011
0000000000001011
1000000000010111
0000000001010010
0000000010010110
1000000011100000
0000000000000101
1000000000111111
1000000001001000
0000000010000001
1000000000100000
1000000111010100
1000000000011111
1000000011010101
1000000100010000
0000000010101101
1000000011010001
1000000010111010
0000000001110110
1000000010010100
0000000001111110
0000000011100100
0000000000111010
0000000010001010
1000000101000100
0000000010110010
0000000011000000
0000000001000000
0000000000111100
1000000001101100
0000000010100101
0000000000100000
1000000000001001
0000000010001111
1000000000010001
1000000000001101
0000000001011100
0000000000001100
1000000000010001
1000000001000111
1000000001000111
0000000000001101
1000000010110011
0000000000001100
0000000010111000
0000000001100100
1000000000100111
1000000011110010
1000000001011001
0000000010111010
0000000010100111
1000000011011011
0000000001101101
1000000000001010
1000000001100111
1000000000011000
1000000101011100
1000000001011000
1000000101001101
1000000001011100
0000000001100010
0000000011011111
0000000011011100
1000000010011111
1000000001011101
0000000011001011
1000000000000001
1000000000001000
0000000010111011
