1000000001100110
1000000001011011
1000000001010110
1000000000101010
0000000001010001
1000000000100110
1000000010001100
0000000000010000
1000000000011010
0000000000110111
1000000001010110
0000000001001010
1000000001000100
1000000000100111
1000000001011110
1000000001100100
1000000000110000
0000000000001110
0000000000000011
0000000000101000
0000000000100110
1000000001101000
1000000001010010
0000000000010111
1000000001100010
0000000000100000
1000000000111111
1000000001010101
1000000000100001
1000000000001100
0000000001000001
1000000001111001
0000000000000100
1000000010001101
1000000001000001
0000000000100010
1000000001000110
0000000000100101
0000000001010001
1000000000111011
0000000000011101
1000000010001001
0000000000110101
1000000001011000
1000000000000000
1000000001100111
0000000001000011
1000000000101100
1000000000010000
0000000000010101
1000000001000011
0000000000010100
0000000000111110
0000000000010010
1000000001000101
1000000000010101
1000000000111001
1000000001110000
1000000000000011
1000000001100101
1000000000110110
0000000000000111
1000000001011001
1000000001011000
0000000000110100
0000000000011101
0000000001010100
1000000001101111
1000000000010111
1000000001000101
1000000000001111
1000000001010010
1000000000011100
1000000000000010
1000000000100100
1000000000111001
1000000000111000
0000000001001011
1000000001011110
1000000001010011
1000000001010000
0000000001011010
0000000000000000
1000000001000001
1000000000001010
0000000001101011
1000000000110000
0000000000010110
1000000011001101
1000000001000010
